{
  "version": "1.0",
  "truncation": null,
  "padding": null,
  "added_tokens": [
    {
      "id": 0,
      "content": "[PAD]",
      "single_word": false,
      "lstrip": false,
      "rstrip": false,
      "normalized": false,
      "special": true
    },
    {
      "id": 1,
      "content": "[EOS]",
      "single_word": false,
      "lstrip": false,
      "rstrip": false,
      "normalized": false,
      "special": true
    },
    {
      "id": 2,
      "content": "[BOS]",
      "single_word": false,
      "lstrip": false,
      "rstrip": false,
      "normalized": false,
      "special": true
    },
    {
      "id": 3,
      "content": "[UNK]",
      "single_word": false,
      "lstrip": false,
      "rstrip": false,
      "normalized": false,
      "special": true
    },
    {
      "id": 4,
      "content": "[SEP]",
      "single_word": false,
      "lstrip": false,
      "rstrip": false,
      "normalized": false,
      "special": true
    },
    {
      "id": 5,
      "content": "[MASK]",
      "single_word": false,
      "lstrip": false,
      "rstrip": false,
      "normalized": false,
      "special": true
    },
    {
      "id": 6,
      "content": "[INST]",
      "single_word": false,
      "lstrip": false,
      "rstrip": false,
      "normalized": false,
      "special": true
    },
    {
      "id": 7,
      "content": "[/INST]",
      "single_word": false,
      "lstrip": false,
      "rstrip": false,
      "normalized": false,
      "special": true
    },
    {
      "id": 8,
      "content": "[SYS]",
      "single_word": false,
      "lstrip": false,
      "rstrip": false,
      "normalized": false,
      "special": true
    },
    {
      "id": 9,
      "content": "[USER]",
      "single_word": false,
      "lstrip": false,
      "rstrip": false,
      "normalized": false,
      "special": true
    },
    {
      "id": 10,
      "content": "[ASST]",
      "single_word": false,
      "lstrip": false,
      "rstrip": false,
      "normalized": false,
      "special": true
    },
    {
      "id": 11,
      "content": "[TURN]",
      "single_word": false,
      "lstrip": false,
      "rstrip": false,
      "normalized": false,
      "special": true
    },
    {
      "id": 12,
      "content": "[LANG_ID]",
      "single_word": false,
      "lstrip": false,
      "rstrip": false,
      "normalized": false,
      "special": true
    },
    {
      "id": 13,
      "content": "[LANG_JV]",
      "single_word": false,
      "lstrip": false,
      "rstrip": false,
      "normalized": false,
      "special": true
    },
    {
      "id": 14,
      "content": "[LANG_SU]",
      "single_word": false,
      "lstrip": false,
      "rstrip": false,
      "normalized": false,
      "special": true
    },
    {
      "id": 15,
      "content": "[LANG_EN]",
      "single_word": false,
      "lstrip": false,
      "rstrip": false,
      "normalized": false,
      "special": true
    },
    {
      "id": 16,
      "content": "AuraLLM",
      "single_word": false,
      "lstrip": false,
      "rstrip": false,
      "normalized": false,
      "special": true
    },
    {
      "id": 17,
      "content": "Indonesia",
      "single_word": false,
      "lstrip": false,
      "rstrip": false,
      "normalized": false,
      "special": true
    },
    {
      "id": 18,
      "content": "Pancasila",
      "single_word": false,
      "lstrip": false,
      "rstrip": false,
      "normalized": false,
      "special": true
    },
    {
      "id": 19,
      "content": "Nusantara",
      "single_word": false,
      "lstrip": false,
      "rstrip": false,
      "normalized": false,
      "special": true
    }
  ],
  "normalizer": {
    "type": "NFKC"
  },
  "pre_tokenizer": {
    "type": "Sequence",
    "pretokenizers": [
      {
        "type": "Digits",
        "individual_digits": true
      },
      {
        "type": "ByteLevel",
        "add_prefix_space": false,
        "trim_offsets": true,
        "use_regex": true
      }
    ]
  },
  "post_processor": {
    "type": "ByteLevel",
    "add_prefix_space": true,
    "trim_offsets": true,
    "use_regex": true
  },
  "decoder": {
    "type": "ByteLevel",
    "add_prefix_space": true,
    "trim_offsets": true,
    "use_regex": true
  },
  "model": {
    "type": "BPE",
    "dropout": null,
    "unk_token": "[UNK]",
    "continuing_subword_prefix": null,
    "end_of_word_suffix": null,
    "fuse_unk": false,
    "byte_fallback": false,
    "ignore_merges": false,
    "vocab": {
      "[PAD]": 0,
      "[EOS]": 1,
      "[BOS]": 2,
      "[UNK]": 3,
      "[SEP]": 4,
      "[MASK]": 5,
      "[INST]": 6,
      "[/INST]": 7,
      "[SYS]": 8,
      "[USER]": 9,
      "[ASST]": 10,
      "[TURN]": 11,
      "[LANG_ID]": 12,
      "[LANG_JV]": 13,
      "[LANG_SU]": 14,
      "[LANG_EN]": 15,
      "AuraLLM": 16,
      "Indonesia": 17,
      "Pancasila": 18,
      "Nusantara": 19,
      "!": 20,
      "\"": 21,
      "#": 22,
      "$": 23,
      "%": 24,
      "&": 25,
      "'": 26,
      "(": 27,
      ")": 28,
      "*": 29,
      "+": 30,
      ",": 31,
      "-": 32,
      ".": 33,
      "/": 34,
      "0": 35,
      "1": 36,
      "2": 37,
      "3": 38,
      "4": 39,
      "5": 40,
      "6": 41,
      "7": 42,
      "8": 43,
      "9": 44,
      ":": 45,
      ";": 46,
      "<": 47,
      "=": 48,
      ">": 49,
      "?": 50,
      "@": 51,
      "A": 52,
      "B": 53,
      "C": 54,
      "D": 55,
      "E": 56,
      "F": 57,
      "G": 58,
      "H": 59,
      "I": 60,
      "J": 61,
      "K": 62,
      "L": 63,
      "M": 64,
      "N": 65,
      "O": 66,
      "P": 67,
      "Q": 68,
      "R": 69,
      "S": 70,
      "T": 71,
      "U": 72,
      "V": 73,
      "W": 74,
      "X": 75,
      "Y": 76,
      "Z": 77,
      "[": 78,
      "\\": 79,
      "]": 80,
      "^": 81,
      "_": 82,
      "`": 83,
      "a": 84,
      "b": 85,
      "c": 86,
      "d": 87,
      "e": 88,
      "f": 89,
      "g": 90,
      "h": 91,
      "i": 92,
      "j": 93,
      "k": 94,
      "l": 95,
      "m": 96,
      "n": 97,
      "o": 98,
      "p": 99,
      "q": 100,
      "r": 101,
      "s": 102,
      "t": 103,
      "u": 104,
      "v": 105,
      "w": 106,
      "x": 107,
      "y": 108,
      "z": 109,
      "{": 110,
      "|": 111,
      "}": 112,
      "~": 113,
      "¡": 114,
      "¢": 115,
      "£": 116,
      "¤": 117,
      "¥": 118,
      "¦": 119,
      "§": 120,
      "¨": 121,
      "©": 122,
      "ª": 123,
      "«": 124,
      "¬": 125,
      "®": 126,
      "¯": 127,
      "°": 128,
      "±": 129,
      "²": 130,
      "³": 131,
      "´": 132,
      "µ": 133,
      "¶": 134,
      "·": 135,
      "¸": 136,
      "¹": 137,
      "º": 138,
      "»": 139,
      "¼": 140,
      "½": 141,
      "¾": 142,
      "¿": 143,
      "À": 144,
      "Á": 145,
      "Â": 146,
      "Ã": 147,
      "Ä": 148,
      "Å": 149,
      "Æ": 150,
      "Ç": 151,
      "È": 152,
      "É": 153,
      "Ê": 154,
      "Ë": 155,
      "Ì": 156,
      "Í": 157,
      "Î": 158,
      "Ï": 159,
      "Ð": 160,
      "Ñ": 161,
      "Ò": 162,
      "Ó": 163,
      "Ô": 164,
      "Õ": 165,
      "Ö": 166,
      "×": 167,
      "Ø": 168,
      "Ù": 169,
      "Ú": 170,
      "Û": 171,
      "Ü": 172,
      "Ý": 173,
      "Þ": 174,
      "ß": 175,
      "à": 176,
      "á": 177,
      "â": 178,
      "ã": 179,
      "ä": 180,
      "å": 181,
      "æ": 182,
      "ç": 183,
      "è": 184,
      "é": 185,
      "ê": 186,
      "ë": 187,
      "ì": 188,
      "í": 189,
      "î": 190,
      "ï": 191,
      "ð": 192,
      "ñ": 193,
      "ò": 194,
      "ó": 195,
      "ô": 196,
      "õ": 197,
      "ö": 198,
      "÷": 199,
      "ø": 200,
      "ù": 201,
      "ú": 202,
      "û": 203,
      "ü": 204,
      "ý": 205,
      "þ": 206,
      "ÿ": 207,
      "Ā": 208,
      "ā": 209,
      "Ă": 210,
      "ă": 211,
      "Ą": 212,
      "ą": 213,
      "Ć": 214,
      "ć": 215,
      "Ĉ": 216,
      "ĉ": 217,
      "Ċ": 218,
      "ċ": 219,
      "Č": 220,
      "č": 221,
      "Ď": 222,
      "ď": 223,
      "Đ": 224,
      "đ": 225,
      "Ē": 226,
      "ē": 227,
      "Ĕ": 228,
      "ĕ": 229,
      "Ė": 230,
      "ė": 231,
      "Ę": 232,
      "ę": 233,
      "Ě": 234,
      "ě": 235,
      "Ĝ": 236,
      "ĝ": 237,
      "Ğ": 238,
      "ğ": 239,
      "Ġ": 240,
      "ġ": 241,
      "Ģ": 242,
      "ģ": 243,
      "Ĥ": 244,
      "ĥ": 245,
      "Ħ": 246,
      "ħ": 247,
      "Ĩ": 248,
      "ĩ": 249,
      "Ī": 250,
      "ī": 251,
      "Ĭ": 252,
      "ĭ": 253,
      "Į": 254,
      "į": 255,
      "İ": 256,
      "ı": 257,
      "Ĳ": 258,
      "ĳ": 259,
      "Ĵ": 260,
      "ĵ": 261,
      "Ķ": 262,
      "ķ": 263,
      "ĸ": 264,
      "Ĺ": 265,
      "ĺ": 266,
      "Ļ": 267,
      "ļ": 268,
      "Ľ": 269,
      "ľ": 270,
      "Ŀ": 271,
      "ŀ": 272,
      "Ł": 273,
      "ł": 274,
      "Ń": 275,
      "an": 276,
      "er": 277,
      "Ġd": 278,
      "en": 279,
      "ar": 280,
      "Ġm": 281,
      "in": 282,
      "at": 283,
      "ang": 284,
      "Ġs": 285,
      "la": 286,
      "Ġp": 287,
      "Ġb": 288,
      "Ġt": 289,
      "Ġk": 290,
      "un": 291,
      "da": 292,
      "as": 293,
      "em": 294,
      "kan": 295,
      "Ġdi": 296,
      "ah": 297,
      "al": 298,
      "ya": 299,
      "am": 300,
      "is": 301,
      "eng": 302,
      "tu": 303,
      "Ġse": 304,
      "yang": 305,
      "on": 306,
      "es": 307,
      "Ġyang": 308,
      "ĠS": 309,
      "ak": 310,
      "ik": 311,
      "Ġdan": 312,
      "ada": 313,
      "or": 314,
      "ĠP": 315,
      "ĠA": 316,
      "il": 317,
      "ga": 318,
      "us": 319,
      "el": 320,
      "it": 321,
      "Ġmen": 322,
      "lah": 323,
      "di": 324,
      "ing": 325,
      "Ġber": 326,
      "ĠK": 327,
      "ĠM": 328,
      "ap": 329,
      "ari": 330,
      "ĠB": 331,
      "ur": 332,
      "Ġke": 333,
      "Ġter": 334,
      "ut": 335,
      "ĠT": 336,
      "eb": 337,
      "um": 338,
      "ol": 339,
      "Ġin": 340,
      "Ġmem": 341,
      "et": 342,
      "ia": 343,
      "ĠD": 344,
      "nya": 345,
      "Ġ(": 346,
      "ala": 347,
      "ek": 348,
      "ara": 349,
      "Ġper": 350,
      "Ġj": 351,
      "akan": 352,
      "Ġh": 353,
      "uk": 354,
      "ĠI": 355,
      "ba": 356,
      "engan": 357,
      "tuk": 358,
      "im": 359,
      "Ġl": 360,
      "ung": 361,
      "si": 362,
      "Ġdari": 363,
      "asi": 364,
      "ja": 365,
      "ir": 366,
      "ul": 367,
      "Ġdengan": 368,
      "om": 369,
      "Ġini": 370,
      "ti": 371,
      "Ġun": 372,
      "Ġmeng": 373,
      "ĠC": 374,
      "Ġuntuk": 375,
      "ta": 376,
      "up": 377,
      "gi": 378,
      "Ġada": 379,
      "alam": 380,
      "ĠJ": 381,
      "ĠR": 382,
      "ro": 383,
      "Ġr": 384,
      "Ġpada": 385,
      "ĠL": 386,
      "anya": 387,
      "ih": 388,
      "ama": 389,
      "ata": 390,
      "ĠN": 391,
      "ĠH": 392,
      "ri": 393,
      "Ġla": 394,
      "ad": 395,
      "bu": 396,
      "ep": 397,
      "Ġc": 398,
      "ela": 399,
      "ĠG": 400,
      "Ġadalah": 401,
      "Ġmer": 402,
      "eh": 403,
      "ok": 404,
      "Ġdalam": 405,
      "itu": 406,
      "Ġpen": 407,
      "id": 408,
      "Ġn": 409,
      "ĠĊ": 410,
      "wa": 411,
      "ter": 412,
      "gai": 413,
      "ĠIn": 414,
      "Ġg": 415,
      "ida": 416,
      "emb": 417,
      "atan": 418,
      "ĠAn": 419,
      "ab": 420,
      "Ġf": 421,
      "per": 422,
      "and": 423,
      "ĠF": 424,
      "bagai": 425,
      "ahun": 426,
      "uh": 427,
      "Ġju": 428,
      "Ġba": 429,
      "ot": 430,
      "Ġsa": 431,
      "os": 432,
      "ai": 433,
      "oleh": 434,
      "Ġtahun": 435,
      "Ġa": 436,
      "eg": 437,
      "idak": 438,
      "ent": 439,
      "asa": 440,
      "Ġw": 441,
      "ĠU": 442,
      "angan": 443,
      "ed": 444,
      "Ġsebagai": 445,
      "ukan": 446,
      "âĢ": 447,
      "ant": 448,
      "ĠW": 449,
      "jadi": 450,
      "Ġoleh": 451,
      "Ġtidak": 452,
      "ati": 453,
      "ain": 454,
      "amp": 455,
      "Ġjuga": 456,
      "ika": 457,
      "ana": 458,
      "ĠO": 459,
      "ali": 460,
      "ĠE": 461,
      "elah": 462,
      "ra": 463,
      "orang": 464,
      "atu": 465,
      "isi": 466,
      "ula": 467,
      "ub": 468,
      "ebut": 469,
      "pat": 470,
      "ic": 471,
      "Ġata": 472,
      "Ġbah": 473,
      "he": 474,
      "ua": 475,
      "Ġpem": 476,
      "Ġatau": 477,
      "Ġo": 478,
      "ber": 479,
      "Ġitu": 480,
      "tr": 481,
      "Ġbis": 482,
      "Ġmenjadi": 483,
      "ĠAnda": 484,
      "Ġkar": 485,
      "ong": 486,
      "sebut": 487,
      "Ġpeng": 488,
      "Ġakan": 489,
      "ena": 490,
      "ec": 491,
      "uda": 492,
      "ud": 493,
      "eka": 494,
      "ip": 495,
      "ef": 496,
      "ran": 497,
      "op": 498,
      "ĠY": 499,
      "iki": 500,
      "apat": 501,
      "Ġ\"": 502,
      "ebih": 503,
      "apa": 504,
      "amb": 505,
      "Ġdapat": 506,
      "og": 507,
      "Ġbisa": 508,
      "uar": 509,
      "Ġan": 510,
      "od": 511,
      "lu": 512,
      "ota": 513,
      "ist": 514,
      "Ġpro": 515,
      "ensi": 516,
      "gun": 517,
      "don": 518,
      "Ġmeny": 519,
      "ahan": 520,
      "Ġmemil": 521,
      "uan": 522,
      "Ġtersebut": 523,
      "ĠPer": 524,
      "ag": 525,
      "angg": 526,
      "gian": 527,
      "ch": 528,
      "aw": 529,
      "Ġsek": 530,
      "angk": 531,
      "Ġak": 532,
      "upakan": 533,
      "Ġlebih": 534,
      "Ġser": 535,
      "esia": 536,
      "aya": 537,
      "Ġmerupakan": 538,
      "Ġpert": 539,
      "anyak": 540,
      "donesia": 541,
      "ita": 542,
      "esar": 543,
      "Ġsem": 544,
      "Ġmereka": 545,
      "Ġlain": 546,
      "esi": 547,
      "anj": 548,
      "lin": 549,
      "aran": 550,
      "ew": 551,
      "ila": 552,
      "itas": 553,
      "Ġmemiliki": 554,
      "Ġkem": 555,
      "ac": 556,
      "ĠIndonesia": 557,
      "âĢĵ": 558,
      "inya": 559,
      "Ġmela": 560,
      "diri": 561,
      "Ġsatu": 562,
      "Ġ-": 563,
      "int": 564,
      "ian": 565,
      "ĠV": 566,
      "ma": 567,
      "ilm": 568,
      "aan": 569,
      "udah": 570,
      "Ġkarena": 571,
      "ĠĠ": 572,
      "Ġorang": 573,
      "oh": 574,
      "cara": 575,
      "udi": 576,
      "ay": 577,
      "Ġbahwa": 578,
      "Ġv": 579,
      "api": 580,
      "Ġof": 581,
      "Ġseb": 582,
      "erensi": 583,
      "onal": 584,
      "gunakan": 585,
      "Ġmemb": 586,
      "Ġ|": 587,
      "ons": 588,
      "Ġdik": 589,
      "eferensi": 590,
      "ikan": 591,
      "le": 592,
      "Ġbanyak": 593,
      "ib": 594,
      "ingga": 595,
      "eber": 596,
      "ungan": 597,
      "main": 598,
      "alan": 599,
      "Ġhar": 600,
      ").": 601,
      "Referensi": 602,
      "ov": 603,
      "Ġkep": 604,
      "buah": 605,
      "asil": 606,
      "Ġsebuah": 607,
      "Ġtelah": 608,
      "end": 609,
      "kukan": 610,
      "ob": 611,
      "),": 612,
      "Ġas": 613,
      "ingk": 614,
      "perti": 615,
      "eberapa": 616,
      "atas": 617,
      "ni": 618,
      "Ġmel": 619,
      "Ġseperti": 620,
      "Ġdis": 621,
      "Ġker": 622,
      "dapat": 623,
      "ers": 624,
      "Ġmas": 625,
      "li": 626,
      "empat": 627,
      "yah": 628,
      "man": 629,
      "omp": 630,
      "art": 631,
      "re": 632,
      "Ġsen": 633,
      ".,": 634,
      "Ġmenc": 635,
      "dia": 636,
      "buat": 637,
      "Ġdit": 638,
      "Ġia": 639,
      "aru": 640,
      "Ġbagian": 641,
      "hir": 642,
      "Ġsaat": 643,
      "line": 644,
      "gr": 645,
      "uj": 646,
      "sa": 647,
      "ola": 648,
      "ĠAm": 649,
      "Ġsecara": 650,
      "ont": 651,
      "aman": 652,
      "esa": 653,
      "Ġluar": 654,
      "angat": 655,
      "han": 656,
      "ĊĠ": 657,
      "ev": 658,
      "duk": 659,
      "tar": 660,
      "las": 661,
      "Ġon": 662,
      "Ġbesar": 663,
      "aj": 664,
      "ĠAl": 665,
      "elum": 666,
      "ember": 667,
      "uran": 668,
      "Ġkam": 669,
      "Ġtet": 670,
      "emp": 671,
      "imp": 672,
      "eri": 673,
      "orm": 674,
      "kin": 675,
      "Ġbeberapa": 676,
      "ĠAr": 677,
      "est": 678,
      "ĠCh": 679,
      "adi": 680,
      "pesi": 681,
      "Ġset": 682,
      "arkan": 683,
      "Ġya": 684,
      "arang": 685,
      "Ġdip": 686,
      "usah": 687,
      "Ġsela": 688,
      "Ġsangat": 689,
      "Ġsel": 690,
      "Ġkel": 691,
      "udian": 692,
      "Ġberk": 693,
      "uang": 694,
      "Ġpas": 695,
      "ow": 696,
      "ĠDi": 697,
      "Ġal": 698,
      "eda": 699,
      "res": 700,
      "yar": 701,
      "ej": 702,
      "aja": 703,
      "Ġant": 704,
      "angkan": 705,
      "Ġpertama": 706,
      "Ġbi": 707,
      "Ġ||": 708,
      "rad": 709,
      "ĠThe": 710,
      "egara": 711,
      "pesies": 712,
      "Ġsudah": 713,
      "arah": 714,
      "Ġhanya": 715,
      "pa": 716,
      "ulai": 717,
      "Ġthe": 718,
      "Ġkec": 719,
      "unya": 720,
      "aka": 721,
      "Ġanda": 722,
      "ihat": 723,
      "ingg": 724,
      "Ġmengh": 725,
      "Ġkes": 726,
      "ikasi": 727,
      "Ġbers": 728,
      "ard": 729,
      "unan": 730,
      "ses": 731,
      "Ġseorang": 732,
      "af": 733,
      "anda": 734,
      "Ġberb": 735,
      "itus": 736,
      "oc": 737,
      "ikut": 738,
      "Ġterb": 739,
      "wan": 740,
      "ĠPada": 741,
      "Ġharus": 742,
      "ku": 743,
      "ig": 744,
      "..": 745,
      "entu": 746,
      "Ġor": 747,
      "Ġdib": 748,
      "arta": 749,
      "Ġsej": 750,
      "ĠâĢĵ": 751,
      "st": 752,
      "Ġag": 753,
      "Ġsalah": 754,
      "ore": 755,
      "Ġket": 756,
      "amun": 757,
      "tern": 758,
      "Ġonline": 759,
      "Ġpara": 760,
      "mas": 761,
      "if": 762,
      "yan": 763,
      "Ġmembuat": 764,
      "erah": 765,
      "ĠPro": 766,
      "ingkat": 767,
      "enal": 768,
      "ĠĊĊ": 769,
      "Pran": 770,
      "unia": 771,
      "ulan": 772,
      "arat": 773,
      "ug": 774,
      "ĠAmer": 775,
      "utu": 776,
      "Ġmus": 777,
      "Pranala": 778,
      "Ġterl": 779,
      "Ġsed": 780,
      "Ġmember": 781,
      "Ġtent": 782,
      "ima": 783,
      "Ġmenggunakan": 784,
      "asih": 785,
      "gan": 786,
      "Ġkali": 787,
      "ĠMar": 788,
      "ĠTer": 789,
      "ĠAs": 790,
      "tor": 791,
      "idup": 792,
      "eks": 793,
      "annya": 794,
      "Ġseh": 795,
      "erint": 796,
      "th": 797,
      "Ġkemudian": 798,
      "ilayah": 799,
      "enda": 800,
      "enc": 801,
      "ungkin": 802,
      "usia": 803,
      "Ġkita": 804,
      "entuk": 805,
      "Ġhal": 806,
      "Ġatas": 807,
      "Ġpr": 808,
      "era": 809,
      "Ġsamp": 810,
      "uhan": 811,
      "ingan": 812,
      "Ġtan": 813,
      "asional": 814,
      "ĠSer": 815,
      "tur": 816,
      "ual": 817,
      "ui": 818,
      "Ġsu": 819,
      "ili": 820,
      "Ġsetelah": 821,
      "Ġdim": 822,
      "aktu": 823,
      "unj": 824,
      "se": 825,
      "ki": 826,
      "awa": 827,
      "Ġand": 828,
      "asan": 829,
      "Ġkota": 830,
      "Ġmasa": 831,
      "ode": 832,
      "na": 833,
      "umlah": 834,
      "Ġtetapi": 835,
      "inggi": 836,
      "lam": 837,
      "ina": 838,
      "lan": 839,
      "Ġhingga": 840,
      "Ġpemb": 841,
      "Ġkepada": 842,
      "ingin": 843,
      "Ġut": 844,
      "Ġap": 845,
      "Ġbaik": 846,
      "Ġmemper": 847,
      "ikat": 848,
      "Ġbaru": 849,
      "Ġantara": 850,
      "uka": 851,
      "olo": 852,
      "umah": 853,
      "wal": 854,
      "angs": 855,
      "ini": 856,
      "Ġdua": 857,
      "ilih": 858,
      "unc": 859,
      "mainan": 860,
      "ĠAmerika": 861,
      "ind": 862,
      "itar": 863,
      "Ġmendapat": 864,
      "Ġmelakukan": 865,
      "uc": 866,
      "Ġyaitu": 867,
      "Ġked": 868,
      "Ġsep": 869,
      "Ġlainnya": 870,
      "av": 871,
      "iga": 872,
      "nis": 873,
      "san": 874,
      "ĠBer": 875,
      "umum": 876,
      "Ġserta": 877,
      "ĠSel": 878,
      "Ġsendiri": 879,
      "ĠSt": 880,
      "uku": 881,
      "ĠAg": 882,
      "su": 883,
      "ĠMen": 884,
      "aten": 885,
      "ei": 886,
      "do": 887,
      "ill": 888,
      "adap": 889,
      "Ġdia": 890,
      "Ġsebelum": 891,
      "ori": 892,
      "Ġhari": 893,
      "emen": 894,
      "Ġpend": 895,
      "Ġwaktu": 896,
      "ĠAp": 897,
      "Ġtempat": 898,
      "har": 899,
      "ĠPen": 900,
      "ĠUn": 901,
      "Ġdila": 902,
      "erja": 903,
      "ĠIs": 904,
      "Ġsaja": 905,
      "und": 906,
      "tif": 907,
      "Ġwilayah": 908,
      "etak": 909,
      "Ġbagi": 910,
      "osi": 911,
      "ĠIa": 912,
      "Ġsama": 913,
      "Ġdigunakan": 914,
      "ĠUni": 915,
      "Ġsemua": 916,
      "apan": 917,
      "Ġbert": 918,
      "Ġdiper": 919,
      "Ġad": 920,
      "abup": 921,
      "Ġnegara": 922,
      "Pada": 923,
      "unt": 924,
      "Ġsaya": 925,
      "aling": 926,
      "Ġtentang": 927,
      "Ġfilm": 928,
      "Ġtim": 929,
      "usahaan": 930,
      "abupaten": 931,
      "anggal": 932,
      "Ġst": 933,
      "angga": 934,
      "ck": 935,
      "ĠTim": 936,
      "aat": 937,
      "ha": 938,
      "Ġsampai": 939,
      "enis": 940,
      "Ġcara": 941,
      "embali": 942,
      "Ġmasih": 943,
      "ĠĠĠĠ": 944,
      "engah": 945,
      "Ġdir": 946,
      "akat": 947,
      "Ġman": 948,
      "Ġnama": 949,
      "utan": 950,
      "Ġanak": 951,
      "Ġres": 952,
      "ilan": 953,
      "Ġspesies": 954,
      "ĠZ": 955,
      "form": 956,
      "Ġjika": 957,
      "to": 958,
      "olah": 959,
      "Ġterk": 960,
      "baik": 961,
      "enar": 962,
      "eja": 963,
      "aris": 964,
      "ĊĊ": 965,
      "asanya": 966,
      "gu": 967,
      "alia": 968,
      "vers": 969,
      "bat": 970,
      "wah": 971,
      "Ġbahasa": 972,
      "Ġpermainan": 973,
      "ame": 974,
      "anjang": 975,
      "Ġsitus": 976,
      "aerah": 977,
      "ust": 978,
      "ologi": 979,
      "ern": 980,
      "lui": 981,
      "Ġpel": 982,
      "epat": 983,
      "bang": 984,
      "antu": 985,
      "inggal": 986,
      "Ġkon": 987,
      "ĠâĢ": 988,
      "ĠSh": 989,
      "Ġtanggal": 990,
      "itik": 991,
      "|-": 992,
      "mi": 993,
      "Ġmaka": 994,
      "aftar": 995,
      "ting": 996,
      "Ġkom": 997,
      "ide": 998,
      "ump": 999,
      "=\"": 1000,
      "ĠBa": 1001,
      "Ġakhir": 1002,
      "Ġsehingga": 1003,
      "ĠSep": 1004,
      "Ġselama": 1005,
      "ĠSp": 1006,
      "Ġrumah": 1007,
      "atakan": 1008,
      "Ġterh": 1009,
      "amatan": 1010,
      "lot": 1011,
      "alis": 1012,
      "Ġberbagai": 1013,
      "Ġmulai": 1014,
      "Ġketika": 1015,
      "Ġbermain": 1016,
      "egi": 1017,
      "ulis": 1018,
      "Ġseti": 1019,
      "Ġmana": 1020,
      "Ġpern": 1021,
      "raf": 1022,
      "Ġdunia": 1023,
      "ell": 1024,
      "Ġtrad": 1025,
      "Ġma": 1026,
      "Ġmemp": 1027,
      "ce": 1028,
      "Ġkembali": 1029,
      "Ġpula": 1030,
      "Ġgen": 1031,
      "Ġmenj": 1032,
      "idae": 1033,
      "Ġumum": 1034,
      "uduk": 1035,
      "yarakat": 1036,
      "ino": 1037,
      "Ġpemain": 1038,
      "emukan": 1039,
      "Ġsekitar": 1040,
      "atang": 1041,
      "rans": 1042,
      "masuk": 1043,
      "oker": 1044,
      "Ġbersama": 1045,
      "Ġberh": 1046,
      "Ġproduk": 1047,
      "ekerja": 1048,
      "eran": 1049,
      "ĠĊĠĊ": 1050,
      "oda": 1051,
      "Ġmendapatkan": 1052,
      "Ġmelalui": 1053,
      "Ġpeny": 1054,
      "Ġar": 1055,
      "ĠKe": 1056,
      "Ġberp": 1057,
      "Ġga": 1058,
      "Ġkons": 1059,
      "ĠPem": 1060,
      "iran": 1061,
      "angsung": 1062,
      "istem": 1063,
      "ĠKar": 1064,
      "Ġseba": 1065,
      "engk": 1066,
      "Ġtak": 1067,
      "Ġawal": 1068,
      "Ġ&": 1069,
      "upun": 1070,
      "Ġangg": 1071,
      "por": 1072,
      "Ġkh": 1073,
      "apkan": 1074,
      "Ġmend": 1075,
      "Ġkami": 1076,
      "ĠSeb": 1077,
      "Ġlagi": 1078,
      "ĠSerikat": 1079,
      "inda": 1080,
      "Per": 1081,
      "Ġpaling": 1082,
      "our": 1083,
      "elas": 1084,
      "itan": 1085,
      "lik": 1086,
      "Ġput": 1087,
      "inta": 1088,
      "Ġpemerint": 1089,
      "Ġpes": 1090,
      "ĠPr": 1091,
      "elaj": 1092,
      "tikan": 1093,
      "uruh": 1094,
      "onom": 1095,
      "hi": 1096,
      "ahkan": 1097,
      "Ġdilakukan": 1098,
      "Ġhidup": 1099,
      "ĠBr": 1100,
      "ation": 1101,
      "Ġbiasanya": 1102,
      "Ġsetiap": 1103,
      "Ġberada": 1104,
      "Ġkamu": 1105,
      "ami": 1106,
      "ĠKabupaten": 1107,
      "Ġmemberikan": 1108,
      "usi": 1109,
      "dikan": 1110,
      "Ġbulan": 1111,
      "Ġuang": 1112,
      "Ġkeluar": 1113,
      "ĠDesa": 1114,
      "Ġkomp": 1115,
      "Ġperusahaan": 1116,
      "ura": 1117,
      "Ġkeb": 1118,
      "eli": 1119,
      "ĠOr": 1120,
      "Ġterjadi": 1121,
      "ayu": 1122,
      "lat": 1123,
      "Ġtinggi": 1124,
      "ĠPeng": 1125,
      "epang": 1126,
      "insi": 1127,
      "AN": 1128,
      "urut": 1129,
      "edia": 1130,
      "uas": 1131,
      "iden": 1132,
      "entara": 1133,
      "Ġdisebut": 1134,
      "Ġmes": 1135,
      "egeri": 1136,
      "ark": 1137,
      "ukup": 1138,
      "Ġkedua": 1139,
      "Ġpun": 1140,
      "ĠMus": 1141,
      "etelah": 1142,
      "ult": 1143,
      "Ġmasyarakat": 1144,
      "Ġingin": 1145,
      "iv": 1146,
      "ey": 1147,
      "angka": 1148,
      "impin": 1149,
      "ĠSelatan": 1150,
      "ord": 1151,
      "teri": 1152,
      "etah": 1153,
      "anta": 1154,
      "Ġberj": 1155,
      "me": 1156,
      "ĠUnivers": 1157,
      "anjut": 1158,
      "ue": 1159,
      "all": 1160,
      "alah": 1161,
      "buh": 1162,
      "ĠSela": 1163,
      "ĠIng": 1164,
      "ite": 1165,
      "atif": 1166,
      "akhir": 1167,
      "eta": 1168,
      "ĠUt": 1169,
      "Ġtermasuk": 1170,
      "Ġterhadap": 1171,
      "das": 1172,
      "ge": 1173,
      "ine": 1174,
      "oid": 1175,
      "caya": 1176,
      "Ġdesa": 1177,
      "yat": 1178,
      "ebab": 1179,
      "ank": 1180,
      "ca": 1181,
      "ity": 1182,
      "ĠJepang": 1183,
      "gram": 1184,
      "uari": 1185,
      "ou": 1186,
      "\".": 1187,
      "ĠNamun": 1188,
      "Ġutama": 1189,
      "tus": 1190,
      "gris": 1191,
      "Ġpos": 1192,
      "istr": 1193,
      "son": 1194,
      "Ġsesu": 1195,
      "te": 1196,
      "okoh": 1197,
      "ulu": 1198,
      "yak": 1199,
      "Pem": 1200,
      "asal": 1201,
      "Ġpol": 1202,
      "didikan": 1203,
      "Ġdaerah": 1204,
      "Ġbawah": 1205,
      "Ġmemba": 1206,
      "ekn": 1207,
      "Ġair": 1208,
      "Ġmil": 1209,
      "Ġi": 1210,
      "âĢĿ": 1211,
      "bit": 1212,
      "Ġjudi": 1213,
      "Ġcukup": 1214,
      "ĠSM": 1215,
      "ĠBel": 1216,
      "Ġmungkin": 1217,
      "min": 1218,
      "asar": 1219,
      "ris": 1220,
      "ens": 1221,
      "uat": 1222,
      "Ġanggota": 1223,
      "akarta": 1224,
      "ĠAng": 1225,
      "olong": 1226,
      "rop": 1227,
      "ibat": 1228,
      "Ġkayu": 1229,
      "Ġdiri": 1230,
      "Ġdikenal": 1231,
      "ĠOn": 1232,
      "ea": 1233,
      "edi": 1234,
      "likasi": 1235,
      "ĠJawa": 1236,
      "Ġkecil": 1237,
      "Ġweb": 1238,
      "Ġterg": 1239,
      "bum": 1240,
      "Ġpernah": 1241,
      "Ġtel": 1242,
      "uli": 1243,
      "Ġjenis": 1244,
      "bad": 1245,
      "angkat": 1246,
      "ĠKep": 1247,
      "iter": 1248,
      "aks": 1249,
      "Ġkelas": 1250,
      "ĠInggris": 1251,
      "lo": 1252,
      "Ġat": 1253,
      "Ġdil": 1254,
      "tiv": 1255,
      "ast": 1256,
      "engg": 1257,
      "pan": 1258,
      "Ġapa": 1259,
      "ĠIns": 1260,
      "Ġdep": 1261,
      "ersi": 1262,
      "ahasa": 1263,
      "ĠII": 1264,
      "ilis": 1265,
      "ju": 1266,
      "urang": 1267,
      "imb": 1268,
      "lis": 1269,
      "ranc": 1270,
      "Ã©": 1271,
      "ĠMer": 1272,
      "Ġpers": 1273,
      "ry": 1274,
      "ĠKota": 1275,
      "Ġsi": 1276,
      "uni": 1277,
      "Ġagar": 1278,
      "anan": 1279,
      "rat": 1280,
      "usus": 1281,
      "anc": 1282,
      "Ġsistem": 1283,
      "Ġmudah": 1284,
      "Ġsekali": 1285,
      "Ġterletak": 1286,
      "vinsi": 1287,
      "ambil": 1288,
      "ubah": 1289,
      "uru": 1290,
      "usat": 1291,
      "ĠBarat": 1292,
      "ĠSem": 1293,
      "ĠDalam": 1294,
      "ani": 1295,
      "ĠPres": 1296,
      "ĠAk": 1297,
      "ekan": 1298,
      "ĠSek": 1299,
      "eter": 1300,
      "Ġkeh": 1301,
      "ograf": 1302,
      "teroid": 1303,
      "Ġsejak": 1304,
      "yi": 1305,
      "Ġwar": 1306,
      "ĠLa": 1307,
      "Ġmakan": 1308,
      "Ġde": 1309,
      "ĠDia": 1310,
      "Ġfam": 1311,
      "ereja": 1312,
      "Ġbisnis": 1313,
      "tember": 1314,
      "oba": 1315,
      "ĠTimur": 1316,
      "apai": 1317,
      "Ġjumlah": 1318,
      "elak": 1319,
      "formasi": 1320,
      "ĠEn": 1321,
      "ilihan": 1322,
      "butu": 1323,
      "alami": 1324,
      "Ġsuatu": 1325,
      "ĠKec": 1326,
      "angunan": 1327,
      "Ġsering": 1328,
      "Ġbola": 1329,
      "Ġmener": 1330,
      "de": 1331,
      "lass": 1332,
      "ĠMas": 1333,
      "Ġresmi": 1334,
      "Ġditer": 1335,
      "Ġtert": 1336,
      "ht": 1337,
      "Ġtanpa": 1338,
      "angun": 1339,
      "Ġro": 1340,
      "mp": 1341,
      "awat": 1342,
      "Ġlangsung": 1343,
      "ebabkan": 1344,
      "Ġstr": 1345,
      "Ġkas": 1346,
      "ĠMan": 1347,
      "Ġfil": 1348,
      "Ġseluruh": 1349,
      "com": 1350,
      "Ġperlu": 1351,
      "umber": 1352,
      "Ġbukan": 1353,
      "Ġlagu": 1354,
      "Ġtar": 1355,
      "ungg": 1356,
      "ial": 1357,
      "Ġpenting": 1358,
      "red": 1359,
      "obil": 1360,
      "Ġtiga": 1361,
      "ukum": 1362,
      "any": 1363,
      "andar": 1364,
      "akai": 1365,
      "usaha": 1366,
      "ff": 1367,
      "Ġfamili": 1368,
      "Ġterp": 1369,
      "ly": 1370,
      "erman": 1371,
      "Ġberasal": 1372,
      "ĠSo": 1373,
      "ĠSeptember": 1374,
      "dasarkan": 1375,
      "atur": 1376,
      "Ġdata": 1377,
      "ĠX": 1378,
      "Ġintern": 1379,
      "unjuk": 1380,
      "Ġterdapat": 1381,
      "uta": 1382,
      "Ġdiber": 1383,
      "Ġhasil": 1384,
      "ond": 1385,
      "ĠMei": 1386,
      "ex": 1387,
      "Ġordo": 1388,
      "aksi": 1389,
      "Ġterbaik": 1390,
      "Ġnamun": 1391,
      "Ġtetap": 1392,
      "Ġberikut": 1393,
      "imana": 1394,
      "Ġ.": 1395,
      "ĠIntern": 1396,
      "Ġclass": 1397,
      "ĠTi": 1398,
      "ton": 1399,
      "Ġgenus": 1400,
      "hkan": 1401,
      "Ġdem": 1402,
      "ustr": 1403,
      "ĠIni": 1404,
      "Ġsekarang": 1405,
      "ho": 1406,
      "Ġgame": 1407,
      "ilai": 1408,
      "buhan": 1409,
      "ĠSpesies": 1410,
      "ekat": 1411,
      "ĠMes": 1412,
      "Ġpenduduk": 1413,
      "ies": 1414,
      "oto": 1415,
      "eksi": 1416,
      "ĠPol": 1417,
      "ĠJakarta": 1418,
      "isasi": 1419,
      "Ġkap": 1420,
      "Ġ:": 1421,
      "Ġilm": 1422,
      "yc": 1423,
      "ase": 1424,
      "Film": 1425,
      "aruh": 1426,
      "nama": 1427,
      "Ġkata": 1428,
      "ger": 1429,
      "Ġtrans": 1430,
      "ĠQ": 1431,
      "asis": 1432,
      "Ġtah": 1433,
      "ĠLe": 1434,
      "akin": 1435,
      "udara": 1436,
      "oin": 1437,
      "ĠHal": 1438,
      "Ġmat": 1439,
      "one": 1440,
      "ĠKom": 1441,
      "Ġmasuk": 1442,
      "ys": 1443,
      "idang": 1444,
      "Ġslot": 1445,
      "Ġlalu": 1446,
      "kip": 1447,
      "ongk": 1448,
      "yanan": 1449,
      "usan": 1450,
      "Ġberbeda": 1451,
      "ungai": 1452,
      "ĠNew": 1453,
      "ĠDengan": 1454,
      "ublik": 1455,
      "ubungan": 1456,
      "ĠCol": 1457,
      "An": 1458,
      "ĠUntuk": 1459,
      "ender": 1460,
      "ompok": 1461,
      "iwa": 1462,
      "Ġpanjang": 1463,
      "uah": 1464,
      "ĠKer": 1465,
      "kipun": 1466,
      "Ġmusik": 1467,
      "ĠDes": 1468,
      "Ġeks": 1469,
      "ulit": 1470,
      "perasi": 1471,
      "etahui": 1472,
      "Ġmenja": 1473,
      "Ġmengen": 1474,
      "tion": 1475,
      "arik": 1476,
      "adang": 1477,
      "rancis": 1478,
      "ampil": 1479,
      "ideo": 1480,
      "Ġperk": 1481,
      "ajaan": 1482,
      "war": 1483,
      "'s": 1484,
      "ĠTh": 1485,
      "Ġproses": 1486,
      "erti": 1487,
      "antai": 1488,
      "Ġek": 1489,
      "aikan": 1490,
      "Ġmod": 1491,
      "Ġkhusus": 1492,
      "Ġmusim": 1493,
      "Ġis": 1494,
      "umbang": 1495,
      "Ġtergolong": 1496,
      "ĠSelain": 1497,
      "Ġwa": 1498,
      "ĠRe": 1499,
      "ĠUtara": 1500,
      "Ġpenggun": 1501,
      "ĠMa": 1502,
      "bung": 1503,
      "ĠâĢľ": 1504,
      "Ġsebelumnya": 1505,
      "Ġterdiri": 1506,
      "antan": 1507,
      "ĠAd": 1508,
      "urn": 1509,
      "ografi": 1510,
      "Ġmin": 1511,
      "ĠDan": 1512,
      "inasi": 1513,
      "ij": 1514,
      "gaimana": 1515,
      "ka": 1516,
      "Ġpop": 1517,
      "Ġ()": 1518,
      "oy": 1519,
      "Ġsp": 1520,
      "ban": 1521,
      "anggap": 1522,
      "Ġberl": 1523,
      "Ġsebagian": 1524,
      "faat": 1525,
      "iah": 1526,
      "ate": 1527,
      "Ġharga": 1528,
      "Ġz": 1529,
      "ĠJan": 1530,
      "ulang": 1531,
      "...": 1532,
      "ril": 1533,
      "Ġtem": 1534,
      "omb": 1535,
      "ĠOk": 1536,
      "Ġdin": 1537,
      "erb": 1538,
      "upa": 1539,
      "ĠHar": 1540,
      "Pen": 1541,
      "atal": 1542,
      "Ġsedang": 1543,
      "Ġto": 1544,
      "Ġlok": 1545,
      "ĠAc": 1546,
      "onomi": 1547,
      "Ġberhasil": 1548,
      "angsa": 1549,
      "dom": 1550,
      "araan": 1551,
      "ĠSetelah": 1552,
      "ewan": 1553,
      "dirikan": 1554,
      "alnya": 1555,
      "Ġmelihat": 1556,
      "Ġditu": 1557,
      "aki": 1558,
      "Ġasteroid": 1559,
      "Ġbentuk": 1560,
      "entukan": 1561,
      "umi": 1562,
      "Ġmemen": 1563,
      "tober": 1564,
      "iri": 1565,
      "Ġlah": 1566,
      "rom": 1567,
      "Ġbelum": 1568,
      "urat": 1569,
      "Ġmenyebabkan": 1570,
      "ĠKat": 1571,
      "ker": 1572,
      "In": 1573,
      "Ġabad": 1574,
      "Ġart": 1575,
      "tua": 1576,
      "yata": 1577,
      "Ġperj": 1578,
      "Ġmembantu": 1579,
      "ks": 1580,
      "\",": 1581,
      "Ġen": 1582,
      "ĠNegeri": 1583,
      "intang": 1584,
      "ĠPert": 1585,
      "amanya": 1586,
      "ĠKecamatan": 1587,
      "Ġmanusia": 1588,
      "Ġmeningkat": 1589,
      "akil": 1590,
      "rist": 1591,
      "uler": 1592,
      "ĠIslam": 1593,
      "Ġjalan": 1594,
      "ver": 1595,
      "erita": 1596,
      "Ġinformasi": 1597,
      "Ġkont": 1598,
      "Ġpoker": 1599,
      "Ġperm": 1600,
      "ĠAb": 1601,
      "gus": 1602,
      "Ġdih": 1603,
      "iti": 1604,
      "Ġdiba": 1605,
      "Ġind": 1606,
      "ĠBelanda": 1607,
      "Ġmemilih": 1608,
      "ira": 1609,
      "ort": 1610,
      "ci": 1611,
      "Ġkarya": 1612,
      "umat": 1613,
      "Ġbekerja": 1614,
      "Ġmaupun": 1615,
      "Ġ/": 1616,
      "ich": 1617,
      "evisi": 1618,
      "gaan": 1619,
      "Ġ,": 1620,
      "awan": 1621,
      "Ġop": 1622,
      "tera": 1623,
      "asilkan": 1624,
      "ejarah": 1625,
      "ment": 1626,
      "isata": 1627,
      "umen": 1628,
      "ĠJika": 1629,
      "ator": 1630,
      "ebr": 1631,
      "ungsi": 1632,
      "anita": 1633,
      "inal": 1634,
      "ĠBis": 1635,
      "Ġakhirnya": 1636,
      "Ġmeninggal": 1637,
      "elar": 1638,
      "artai": 1639,
      "Ġkal": 1640,
      "ĠNov": 1641,
      "Ġlama": 1642,
      "ess": 1643,
      "alur": 1644,
      "Ġtu": 1645,
      "ĠPrancis": 1646,
      "iz": 1647,
      "ĠRom": 1648,
      "Ġpemerintah": 1649,
      "ĠAda": 1650,
      "uncul": 1651,
      "Ġbahkan": 1652,
      "ĠUniversitas": 1653,
      "omor": 1654,
      "anding": 1655,
      "Ġmemas": 1656,
      "ĠFilm": 1657,
      "ĠGr": 1658,
      "embangan": 1659,
      "Ġselalu": 1660,
      "isme": 1661,
      "Ġkeluarga": 1662,
      "ĠJerman": 1663,
      "alaman": 1664,
      "Ġbin": 1665,
      "iman": 1666,
      "Ġsekolah": 1667,
      "Ġjam": 1668,
      "orea": 1669,
      "ne": 1670,
      "ĠOnline": 1671,
      "Ġbenar": 1672,
      "Ġbernama": 1673,
      "Ġsesuai": 1674,
      "Ġjar": 1675,
      "ulau": 1676,
      "ropa": 1677,
      "ational": 1678,
      "gabung": 1679,
      "asiun": 1680,
      "ĠKem": 1681,
      "ith": 1682,
      "ans": 1683,
      "orex": 1684,
      "uti": 1685,
      "Ġjadi": 1686,
      "embang": 1687,
      "Ġdig": 1688,
      "Ġaplikasi": 1689,
      "ary": 1690,
      "ĠCer": 1691,
      "Ġmobil": 1692,
      "ĠSe": 1693,
      "Ġsementara": 1694,
      "ikuti": 1695,
      "ĠSitus": 1696,
      "Ġdic": 1697,
      "ron": 1698,
      "ehatan": 1699,
      "elajar": 1700,
      "IS": 1701,
      "ook": 1702,
      "ĠRep": 1703,
      "Ġters": 1704,
      "ĠAnim": 1705,
      "ungi": 1706,
      "alau": 1707,
      "Ġmemang": 1708,
      "aranya": 1709,
      "men": 1710,
      "ĠĊĠ": 1711,
      "ĠOktober": 1712,
      "ld": 1713,
      "Ġterus": 1714,
      "Ġcepat": 1715,
      "Ġtekn": 1716,
      "Ġmenemukan": 1717,
      "ĠMin": 1718,
      "osial": 1719,
      "Ġja": 1720,
      "Ġpenc": 1721,
      "Ġtuj": 1722,
      "Ġmengg": 1723,
      "Di": 1724,
      "Ġmengenai": 1725,
      "bitkan": 1726,
      "Ġmasalah": 1727,
      "Ġterakhir": 1728,
      "enang": 1729,
      "Tokoh": 1730,
      "Ġkumbang": 1731,
      "dukung": 1732,
      "Ġup": 1733,
      "lub": 1734,
      "eluar": 1735,
      "ĠEropa": 1736,
      "ikit": 1737,
      "percaya": 1738,
      "empuan": 1739,
      "ost": 1740,
      "Ġmencapai": 1741,
      "AR": 1742,
      "Ġketi": 1743,
      "Ġtrading": 1744,
      "Ġtanah": 1745,
      "urkan": 1746,
      "ihak": 1747,
      "Ġmengalami": 1748,
      "Ġpela": 1749,
      "usun": 1750,
      "Ġsemakin": 1751,
      "ĠAgus": 1752,
      "akah": 1753,
      "udaya": 1754,
      "Ġtum": 1755,
      "Ġprof": 1756,
      "Un": 1757,
      "tudi": 1758,
      "ĠDunia": 1759,
      "Ġmuncul": 1760,
      "ĠKorea": 1761,
      "Ġpendidikan": 1762,
      "Ġtaruhan": 1763,
      "unjukkan": 1764,
      "Al": 1765,
      "ĠAnd": 1766,
      "encana": 1767,
      "untungan": 1768,
      "Ġkeku": 1769,
      "efek": 1770,
      "Lihat": 1771,
      "mat": 1772,
      "andingan": 1773,
      "Ġy": 1774,
      "kannya": 1775,
      "Ġpolitik": 1776,
      "Ġot": 1777,
      "arti": 1778,
      "Ġseg": 1779,
      "||": 1780,
      "ĠArth": 1781,
      "idupan": 1782,
      "ĠJuli": 1783,
      "ĠApril": 1784,
      "ork": 1785,
      "mu": 1786,
      "atian": 1787,
      "itur": 1788,
      "imal": 1789,
      "ĠMereka": 1790,
      "ingdom": 1791,
      "Ġasal": 1792,
      "ĠPa": 1793,
      "ĠPresiden": 1794,
      "erta": 1795,
      "Ġmenarik": 1796,
      "ĠKarena": 1797,
      "Ġmesin": 1798,
      "hy": 1799,
      "elur": 1800,
      "Ġmet": 1801,
      "Ġdes": 1802,
      "Ġalbum": 1803,
      "atatan": 1804,
      "ĠPas": 1805,
      "her": 1806,
      "au": 1807,
      "Ġtubuh": 1808,
      "etika": 1809,
      "Ġpri": 1810,
      "Ġhukum": 1811,
      "Ġluas": 1812,
      "Ġfor": 1813,
      "ĠJuni": 1814,
      "uri": 1815,
      "Ġacara": 1816,
      "Ġem": 1817,
      "Ber": 1818,
      "hargaan": 1819,
      "ĠTengah": 1820,
      "ĠMaret": 1821,
      "utama": 1822,
      "Ġbiasa": 1823,
      "Ġbahan": 1824,
      "iet": 1825,
      "ĠAir": 1826,
      "unyai": 1827,
      "ĠDesember": 1828,
      "ĠNasional": 1829,
      "ganisasi": 1830,
      "tik": 1831,
      "Ġsebesar": 1832,
      "Ġlaut": 1833,
      "va": 1834,
      "Ġel": 1835,
      "Ġsedikit": 1836,
      "iaya": 1837,
      "ĠGo": 1838,
      "olik": 1839,
      "Ġdekat": 1840,
      "Ġ'": 1841,
      "Ġdij": 1842,
      "IN": 1843,
      "alat": 1844,
      "enggara": 1845,
      "lanet": 1846,
      "ontoh": 1847,
      "iko": 1848,
      "ampu": 1849,
      "arian": 1850,
      "Ġtinggal": 1851,
      "ĠRo": 1852,
      "urun": 1853,
      "ĠJoh": 1854,
      "atih": 1855,
      "Ġpemerintahan": 1856,
      "Ġkek": 1857,
      "Ġbidang": 1858,
      "egitu": 1859,
      "Ġkurang": 1860,
      "Ġberdasarkan": 1861,
      "Ġfilum": 1862,
      "raga": 1863,
      "of": 1864,
      "ecies": 1865,
      "ĠAgustus": 1866,
      "Ġjauh": 1867,
      "ĠSin": 1868,
      "ulasi": 1869,
      "emi": 1870,
      "ĠAnimalia": 1871,
      "Ġvideo": 1872,
      "Ġkingdom": 1873,
      "Ġmengan": 1874,
      "ĠIt": 1875,
      "unung": 1876,
      "Ġtepat": 1877,
      "ustri": 1878,
      "rup": 1879,
      "Ġtingkat": 1880,
      "Ġjuta": 1881,
      "ĠJanuari": 1882,
      "ongkok": 1883,
      "Ġdasar": 1884,
      "ĠSen": 1885,
      "own": 1886,
      "ĠIndia": 1887,
      "Ġprogram": 1888,
      "uangan": 1889,
      "Ġsepak": 1890,
      "Ġmempunyai": 1891,
      "ecta": 1892,
      "Ġwanita": 1893,
      "aku": 1894,
      "Ġmengatakan": 1895,
      "ĠCar": 1896,
      "ikian": 1897,
      "mad": 1898,
      "site": 1899,
      "estasi": 1900,
      "Ġmakanan": 1901,
      "Ġdid": 1902,
      "Ġmenik": 1903,
      "Ġmencari": 1904,
      "ĠNovember": 1905,
      "Ġkerja": 1906,
      "oko": 1907,
      "ĠKa": 1908,
      "Ġposisi": 1909,
      "orld": 1910,
      "ropoda": 1911,
      "ulkan": 1912,
      "Ġlayanan": 1913,
      "ĠRes": 1914,
      "ĠSa": 1915,
      "Ġperempuan": 1916,
      "ory": 1917,
      "Ġtelevisi": 1918,
      "ĠBaill": 1919,
      "old": 1920,
      "ambyc": 1921,
      "ĠCerambyc": 1922,
      "ĠArthropoda": 1923,
      "ĠCerambycidae": 1924,
      "Ġditemukan": 1925,
      "ĠMenteri": 1926,
      "roduk": 1927,
      "ĠInsecta": 1928,
      "itab": 1929,
      "Seb": 1930,
      "Ġtahu": 1931,
      "co": 1932,
      "ĠKes": 1933,
      "ĠAustr": 1934,
      "alik": 1935,
      "Ġversi": 1936,
      "Ġpusat": 1937,
      "ĠDaftar": 1938,
      "âĢĶ": 1939,
      "ĠMah": 1940,
      "Ġdibuat": 1941,
      "fikasi": 1942,
      "lim": 1943,
      "ji": 1944,
      "ona": 1945,
      "ĠRaja": 1946,
      "rib": 1947,
      "land": 1948,
      "Ġmampu": 1949,
      "ral": 1950,
      "Ġpasar": 1951,
      "âĢĻ": 1952,
      "endah": 1953,
      "fr": 1954,
      "Ġumumnya": 1955,
      "Ġmenghasilkan": 1956,
      "Ġkelompok": 1957,
      "Ġrek": 1958,
      "ediakan": 1959,
      "uanya": 1960,
      "ĠPh": 1961,
      "Peng": 1962,
      "inan": 1963,
      "Ġpihak": 1964,
      "olog": 1965,
      "Ġmenunjukkan": 1966,
      "anak": 1967,
      "lay": 1968,
      "amu": 1969,
      "ĠBar": 1970,
      "ĠEl": 1971,
      "Ġmenya": 1972,
      "ie": 1973,
      "enangan": 1974,
      "Ġtangan": 1975,
      "Ġsup": 1976,
      "ampung": 1977,
      "ait": 1978,
      "ĠKal": 1979,
      "ĠNama": 1980,
      "Ġre": 1981,
      "qu": 1982,
      "titu": 1983,
      "ph": 1984,
      "Ġyak": 1985,
      "aria": 1986,
      "lahraga": 1987,
      "Ġterkenal": 1988,
      "Ġjiwa": 1989,
      "ĠTiongkok": 1990,
      "ĠProvinsi": 1991,
      "ĠSy": 1992,
      "olusi": 1993,
      "ĠĠĠĠĠĠĠĠ": 1994,
      "badi": 1995,
      "Ġditerbitkan": 1996,
      "Ġkecamatan": 1997,
      "ward": 1998,
      "adan": 1999,
      "asaan": 2000,
      "elit": 2001,
      "Ġtr": 2002,
      "ĠPulau": 2003,
      "ĠSch": 2004,
      "emba": 2005,
      "etu": 2006,
      "Ġberarti": 2007,
      "Ġmenerima": 2008,
      "ungk": 2009,
      "Ġmengambil": 2010,
      "Ġyakni": 2011,
      "ĠBand": 2012,
      "ve": 2013,
      "Ġempat": 2014,
      "butuhkan": 2015,
      "Ġkartu": 2016,
      "agai": 2017,
      "acam": 2018,
      "ask": 2019,
      "Ġdepan": 2020,
      "dag": 2021,
      "mer": 2022,
      "Ġsosial": 2023,
      ".)": 2024,
      "eum": 2025,
      "Ġperb": 2026,
      "ĠYang": 2027,
      "Ġdatang": 2028,
      "Ġnya": 2029,
      "ĠRos": 2030,
      "akar": 2031,
      "Ġibu": 2032,
      "yu": 2033,
      "Ġsumber": 2034,
      "ass": 2035,
      "Ġpan": 2036,
      "ĠFebr": 2037,
      "ĠPers": 2038,
      "ateg": 2039,
      "yo": 2040,
      "Ġmata": 2041,
      "Ġmah": 2042,
      "isah": 2043,
      "Ġsejarah": 2044,
      "Ġpekerja": 2045,
      "Ġkomun": 2046,
      "ret": 2047,
      "ampak": 2048,
      "Ġbuku": 2049,
      "enter": 2050,
      "kup": 2051,
      "ĠMala": 2052,
      "Ġagama": 2053,
      "Ġmuda": 2054,
      "Ġkm": 2055,
      "Ġkegi": 2056,
      "ĠMat": 2057,
      "disi": 2058,
      "ĠSur": 2059,
      "gal": 2060,
      "aham": 2061,
      "Ġadanya": 2062,
      "awasan": 2063,
      "akter": 2064,
      "ampir": 2065,
      "pada": 2066,
      "Dalam": 2067,
      "ĠAt": 2068,
      "rip": 2069,
      "jah": 2070,
      "Ġterutama": 2071,
      "ack": 2072,
      "akyat": 2073,
      "hal": 2074,
      "ĠTahun": 2075,
      "ĠAsia": 2076,
      "ĠMis": 2077,
      "ratis": 2078,
      "port": 2079,
      "Ġdianggap": 2080,
      "dak": 2081,
      "rama": 2082,
      "istrik": 2083,
      "Ġti": 2084,
      "ĠRepublik": 2085,
      "Ġkegiatan": 2086,
      "yakit": 2087,
      "Ġnasional": 2088,
      "ambar": 2089,
      "ital": 2090,
      "Ġtertentu": 2091,
      "II": 2092,
      "by": 2093,
      "ĠCo": 2094,
      "atat": 2095,
      "Ġbur": 2096,
      "Ġkapal": 2097,
      "ambah": 2098,
      "Ġmis": 2099,
      "ice": 2100,
      "ilang": 2101,
      ".\"": 2102,
      "Ġdirilis": 2103,
      "ĠNo": 2104,
      "ĠOl": 2105,
      "omo": 2106,
      "ames": 2107,
      "Ġpasukan": 2108,
      "adaan": 2109,
      "asti": 2110,
      "AS": 2111,
      "ĠGe": 2112,
      "Men": 2113,
      "antung": 2114,
      "ualitas": 2115,
      "utus": 2116,
      "fat": 2117,
      "Ġ=": 2118,
      "akses": 2119,
      "Ġbegitu": 2120,
      "ĠPut": 2121,
      "ĠDe": 2122,
      "wi": 2123,
      "les": 2124,
      "Ġsuara": 2125,
      "atus": 2126,
      "irim": 2127,
      "orn": 2128,
      "anggung": 2129,
      "Sejarah": 2130,
      "Ġpemba": 2131,
      "gn": 2132,
      "unda": 2133,
      "ĠTr": 2134,
      "Ġinv": 2135,
      "Ġtapi": 2136,
      "Ġmur": 2137,
      "gen": 2138,
      "lor": 2139,
      "Ġnilai": 2140,
      "ĠKeb": 2141,
      "atasan": 2142,
      "ĠFebruari": 2143,
      "Ġdaftar": 2144,
      "Ġbarat": 2145,
      "ĠMo": 2146,
      "eles": 2147,
      "Ġmenyatakan": 2148,
      "ĠTan": 2149,
      "log": 2150,
      "ick": 2151,
      "IT": 2152,
      "ampilan": 2153,
      "Ġterbesar": 2154,
      "Ġpilihan": 2155,
      "Ġte": 2156,
      "ĠSi": 2157,
      "ĠPerang": 2158,
      "Ġbelajar": 2159,
      "ukuran": 2160,
      "embangkan": 2161,
      "uter": 2162,
      "Ġmedia": 2163,
      "Ġterc": 2164,
      "Ġsub": 2165,
      "Ġsk": 2166,
      "ikel": 2167,
      "Ġtradisi": 2168,
      "ĠMeng": 2169,
      "Ġmeningkatkan": 2170,
      "Ġmasing": 2171,
      "ĠBo": 2172,
      "Ġsejumlah": 2173,
      "Ġdiberikan": 2174,
      "Ġusaha": 2175,
      "isa": 2176,
      "ĠEd": 2177,
      "ater": 2178,
      "dul": 2179,
      "masing": 2180,
      "ahari": 2181,
      "Ġsuku": 2182,
      "askan": 2183,
      "ainkan": 2184,
      "za": 2185,
      "Ġlingk": 2186,
      "ote": 2187,
      "Ġhubungan": 2188,
      "ĠSu": 2189,
      "Ġ[": 2190,
      "ilip": 2191,
      "Ġbagaimana": 2192,
      "jo": 2193,
      "Ġmemenangkan": 2194,
      "ock": 2195,
      "Ġist": 2196,
      "Ġalam": 2197,
      "eop": 2198,
      "Ġlahir": 2199,
      "Ġberm": 2200,
      "ubahan": 2201,
      "ukses": 2202,
      "isan": 2203,
      "akit": 2204,
      "io": 2205,
      "Ġbergabung": 2206,
      "anjutnya": 2207,
      "ros": 2208,
      "ĠMal": 2209,
      "onus": 2210,
      "antor": 2211,
      "Ġdok": 2212,
      "ĠSam": 2213,
      "Ġpertandingan": 2214,
      "Ġlap": 2215,
      "Ġbelak": 2216,
      "erang": 2217,
      "ĠGereja": 2218,
      "Ġkepala": 2219,
      "roduksi": 2220,
      "lak": 2221,
      "dang": 2222,
      "Ġkeuntungan": 2223,
      "Ġtujuan": 2224,
      "Ġpenj": 2225,
      "Ġpulau": 2226,
      "arier": 2227,
      "ear": 2228,
      "aian": 2229,
      "erintah": 2230,
      "Ġilmiah": 2231,
      "Ġperi": 2232,
      "Ġpet": 2233,
      "Ġketiga": 2234,
      "ambahan": 2235,
      "Ġmenurut": 2236,
      "ĠWar": 2237,
      "Ġkesehatan": 2238,
      "ĠJohn": 2239,
      "ĠKatolik": 2240,
      "ategi": 2241,
      "ife": 2242,
      "ĠAngk": 2243,
      "Ġger": 2244,
      "Ġkasino": 2245,
      "ĠMak": 2246,
      "ish": 2247,
      "Ġkor": 2248,
      "Ġdimana": 2249,
      "Ġakun": 2250,
      "uki": 2251,
      "Ġkondisi": 2252,
      "utrad": 2253,
      "Ġraja": 2254,
      "angkah": 2255,
      "risten": 2256,
      "ĠAllah": 2257,
      "ĠSw": 2258,
      "agu": 2259,
      "PR": 2260,
      "Ġselatan": 2261,
      "ukaan": 2262,
      "Ġberubah": 2263,
      "ĠInd": 2264,
      "Ġmemulai": 2265,
      "atunya": 2266,
      "ash": 2267,
      "Ġekonomi": 2268,
      "Ġperang": 2269,
      "Ġtip": 2270,
      "Ġkeber": 2271,
      "Ġmelawan": 2272,
      "ĠAS": 2273,
      "Ġkaki": 2274,
      "tilah": 2275,
      "ĠPemb": 2276,
      "uktur": 2277,
      "Ġkol": 2278,
      "ebar": 2279,
      "ĠMem": 2280,
      "Ġka": 2281,
      "ganti": 2282,
      "lukan": 2283,
      "udd": 2284,
      "lalu": 2285,
      "Ġdidirikan": 2286,
      "ĠPal": 2287,
      "ink": 2288,
      "otor": 2289,
      "engkap": 2290,
      "Sela": 2291,
      "ĠTidak": 2292,
      "Ġaku": 2293,
      "ĠBaru": 2294,
      "andang": 2295,
      "NI": 2296,
      "ongan": 2297,
      "dana": 2298,
      "ĠDem": 2299,
      "ĠRaya": 2300,
      "Ġseri": 2301,
      "Ġterj": 2302,
      "inc": 2303,
      "Ġapi": 2304,
      "Ġtengah": 2305,
      "ĠSaat": 2306,
      "ĠKed": 2307,
      "enarnya": 2308,
      "Ġefek": 2309,
      "ĠSal": 2310,
      "Ġins": 2311,
      "hat": 2312,
      "ĠCom": 2313,
      "Ġobat": 2314,
      "ĠWil": 2315,
      "Ġpengh": 2316,
      "uman": 2317,
      "Ġken": 2318,
      "osit": 2319,
      "ohon": 2320,
      "Ġmenang": 2321,
      "let": 2322,
      "utradara": 2323,
      "tic": 2324,
      "ime": 2325,
      "Ġby": 2326,
      "Ġutara": 2327,
      "Ġpesawat": 2328,
      "Ġhak": 2329,
      "Ġkerus": 2330,
      "butuhan": 2331,
      "ungkan": 2332,
      "Ġdemikian": 2333,
      "Ġkuat": 2334,
      "Ġwebsite": 2335,
      "Ġkebutuhan": 2336,
      "Ġnegeri": 2337,
      "Ġmenulis": 2338,
      "wak": 2339,
      "age": 2340,
      "Ġkr": 2341,
      "ĠTel": 2342,
      "ĠNor": 2343,
      "ejak": 2344,
      "adakan": 2345,
      "dagangan": 2346,
      "ĠPar": 2347,
      "takan": 2348,
      "ĠRusia": 2349,
      "Ġik": 2350,
      "ampuan": 2351,
      "Ġmemberi": 2352,
      "ampilkan": 2353,
      "Ġsesuatu": 2354,
      "operasi": 2355,
      "Ġkalian": 2356,
      "Ġbarang": 2357,
      "Ġtimur": 2358,
      "Ġed": 2359,
      "ĠMuh": 2360,
      "engaruh": 2361,
      "Ġjelas": 2362,
      ",\"": 2363,
      "Ġwarga": 2364,
      "una": 2365,
      "Ġmerasa": 2366,
      "ĠChe": 2367,
      "daf": 2368,
      "ĠDep": 2369,
      "Ġmengikuti": 2370,
      "ĠDr": 2371,
      "Ġsebanyak": 2372,
      "Ġgelar": 2373,
      "ĠPT": 2374,
      "Daftar": 2375,
      "Ġbatu": 2376,
      "Ġkereta": 2377,
      "ĠBi": 2378,
      "ER": 2379,
      "uasa": 2380,
      "Ġmiliter": 2381,
      "Ġkehidupan": 2382,
      "ĠBeberapa": 2383,
      "ĠTerbaik": 2384,
      "Ġbiaya": 2385,
      "inggu": 2386,
      "Ġmak": 2387,
      "uju": 2388,
      "atalog": 2389,
      "base": 2390,
      "iala": 2391,
      "ĠUm": 2392,
      "unuh": 2393,
      "gap": 2394,
      "lahan": 2395,
      "Ġpenulis": 2396,
      "uluh": 2397,
      "abatan": 2398,
      "abel": 2399,
      "ikir": 2400,
      "rasi": 2401,
      "Ġlima": 2402,
      "ilangan": 2403,
      "az": 2404,
      "alanan": 2405,
      "anyakan": 2406,
      "Ġterse": 2407,
      "aik": 2408,
      "Ġinternet": 2409,
      "Ġdimulai": 2410,
      "Ġruang": 2411,
      "ading": 2412,
      "aih": 2413,
      "Ġuj": 2414,
      "Ġwisata": 2415,
      "Setelah": 2416,
      "Ġsin": 2417,
      "ĠMad": 2418,
      "Ġmembawa": 2419,
      "yek": 2420,
      "Ġfitur": 2421,
      "Ġgrup": 2422,
      "ler": 2423,
      "Ġrendah": 2424,
      "Ġproduksi": 2425,
      "Ġhampir": 2426,
      "itam": 2427,
      "jid": 2428,
      "Ġbuah": 2429,
      "Ã¡": 2430,
      "ĠSup": 2431,
      "Ġasli": 2432,
      "asilitas": 2433,
      "Ġmencoba": 2434,
      "Ġprovinsi": 2435,
      "eder": 2436,
      "ĠTV": 2437,
      "Ġhadi": 2438,
      "Ġagen": 2439,
      "yanyi": 2440,
      "Ġkemenangan": 2441,
      "Ġpenyakit": 2442,
      "utusan": 2443,
      "ĠStr": 2444,
      "Sep": 2445,
      "ĠWorld": 2446,
      "Ġbelakang": 2447,
      "sh": 2448,
      "istik": 2449,
      "ĠHe": 2450,
      "Ġmengk": 2451,
      "Ġpasti": 2452,
      "ww": 2453,
      "uth": 2454,
      "enj": 2455,
      "awarkan": 2456,
      "Ġadmin": 2457,
      "ĠPang": 2458,
      "uhi": 2459,
      "ĠIr": 2460,
      "Ġdirinya": 2461,
      "ool": 2462,
      "Ġalat": 2463,
      "The": 2464,
      "ĠLi": 2465,
      "sek": 2466,
      "Ġkerusakan": 2467,
      "Ġtersedia": 2468,
      "anti": 2469,
      "Ġindustri": 2470,
      "Ġgratis": 2471,
      "ĠIl": 2472,
      "Ġtentu": 2473,
      "ĠSet": 2474,
      "rik": 2475,
      "Ġperiode": 2476,
      "ĠKir": 2477,
      "Ar": 2478,
      "Ġdaripada": 2479,
      "ĠPor": 2480,
      "ulus": 2481,
      "ingat": 2482,
      "unga": 2483,
      "isip": 2484,
      "tivitas": 2485,
      "ive": 2486,
      "Ġwarna": 2487,
      "Ġteman": 2488,
      "alu": 2489,
      "ĠSekolah": 2490,
      "uv": 2491,
      "amen": 2492,
      "Ġjalur": 2493,
      "bo": 2494,
      "Ġpengguna": 2495,
      "hati": 2496,
      "ĠLife": 2497,
      "ĠDari": 2498,
      "ĠItalia": 2499,
      "ĠDip": 2500,
      "ĠUs": 2501,
      "ĠSungai": 2502,
      "uali": 2503,
      "ĠInternational": 2504,
      "asiswa": 2505,
      "row": 2506,
      "ĠRp": 2507,
      "bert": 2508,
      "Ġnomor": 2509,
      "ĠPartai": 2510,
      "Åį": 2511,
      "Ġbeb": 2512,
      "ektur": 2513,
      "ĠJadi": 2514,
      "Ġdaya": 2515,
      "ĠBat": 2516,
      "Ġmengetahui": 2517,
      "Ġbudaya": 2518,
      "ner": 2519,
      "atar": 2520,
      "Ġterlihat": 2521,
      "ĠNegara": 2522,
      "Ġpot": 2523,
      "seorang": 2524,
      "Ġterlalu": 2525,
      "ukti": 2526,
      "Ġjawa": 2527,
      "Ġperangkat": 2528,
      "Untuk": 2529,
      "Ġketer": 2530,
      "aktor": 2531,
      "yam": 2532,
      "Ġpopuler": 2533,
      "Ġkarakter": 2534,
      "Ġmeskipun": 2535,
      "Ġilmu": 2536,
      "Ġmenyediakan": 2537,
      "ĠKerajaan": 2538,
      "Ġmenjabat": 2539,
      "andingkan": 2540,
      "anto": 2541,
      "itif": 2542,
      "Ġsebelah": 2543,
      "dis": 2544,
      "ogel": 2545,
      "apun": 2546,
      "empuran": 2547,
      "Ġmatahari": 2548,
      "Ġsisi": 2549,
      "ĠKons": 2550,
      "mati": 2551,
      "Ġpria": 2552,
      "isar": 2553,
      "embaga": 2554,
      "Ġsal": 2555,
      "ĠPara": 2556,
      "Ġklub": 2557,
      "ins": 2558,
      "Ġmenuju": 2559,
      "odal": 2560,
      "ĠKristen": 2561,
      "ĠUK": 2562,
      "ĠYork": 2563,
      "tum": 2564,
      "Ġrasa": 2565,
      "ence": 2566,
      "Ġberkembang": 2567,
      "Ġbersi": 2568,
      "ĠDis": 2569,
      "ubern": 2570,
      "fer": 2571,
      "der": 2572,
      "Ġmembentuk": 2573,
      "andi": 2574,
      "Ġberupa": 2575,
      "ement": 2576,
      "go": 2577,
      "Ġudara": 2578,
      "Ġayah": 2579,
      "Pro": 2580,
      "Ġinternasional": 2581,
      "lus": 2582,
      "ĠKetua": 2583,
      "Ġmenyebut": 2584,
      "Ġdibangun": 2585,
      "ultan": 2586,
      "Ġsedangkan": 2587,
      "ĠKepala": 2588,
      "dah": 2589,
      "get": 2590,
      "ĠIT": 2591,
      "ysia": 2592,
      "hana": 2593,
      "elitian": 2594,
      "Ġteknologi": 2595,
      "Ġpember": 2596,
      "ĠUniversity": 2597,
      "oro": 2598,
      "Ġkulit": 2599,
      "Ġseseorang": 2600,
      "ez": 2601,
      "enti": 2602,
      "Ġlog": 2603,
      "Ġseni": 2604,
      "Ġ)": 2605,
      "Ġakibat": 2606,
      "Ġlaki": 2607,
      "ĠAnn": 2608,
      "ungkinkan": 2609,
      "Ġsungai": 2610,
      "ulauan": 2611,
      "ĠMuham": 2612,
      "Ġpribadi": 2613,
      "oritas": 2614,
      "Ġditulis": 2615,
      "ĠÂ": 2616,
      "ĠAngkatan": 2617,
      "awi": 2618,
      "Ġusia": 2619,
      "ĠBahasa": 2620,
      "pen": 2621,
      "ĠIS": 2622,
      "empatan": 2623,
      "Ġkemampuan": 2624,
      "arva": 2625,
      "Ġmenawarkan": 2626,
      "entang": 2627,
      "amat": 2628,
      "Ġlingkungan": 2629,
      "ĠAward": 2630,
      "elola": 2631,
      "ĠLaut": 2632,
      "ood": 2633,
      "ĠNic": 2634,
      "Ġala": 2635,
      "Ġjaringan": 2636,
      "ugas": 2637,
      "anian": 2638,
      "):": 2639,
      "ĠIb": 2640,
      "rid": 2641,
      "ungkinan": 2642,
      "laki": 2643,
      "Ġmilik": 2644,
      "ono": 2645,
      "Ġsegera": 2646,
      "As": 2647,
      "Ġdesain": 2648,
      "asino": 2649,
      "enderal": 2650,
      "Ġbangunan": 2651,
      "ĠSumat": 2652,
      "ahas": 2653,
      "ĠKap": 2654,
      "RI": 2655,
      "ĠEx": 2656,
      "otal": 2657,
      "ĠAgung": 2658,
      "Ġpres": 2659,
      "Ġ$": 2660,
      "ke": 2661,
      "AT": 2662,
      "Ġperubahan": 2663,
      "uno": 2664,
      "Ġdiketahui": 2665,
      "Ġpar": 2666,
      "Ġmew": 2667,
      "ĠHer": 2668,
      "ren": 2669,
      "ĠDir": 2670,
      "Ġsepanjang": 2671,
      "Ġkasus": 2672,
      "bi": 2673,
      "ect": 2674,
      "oni": 2675,
      "Ġartikel": 2676,
      "ps": 2677,
      "ĠSoc": 2678,
      "Ġim": 2679,
      "ĠPag": 2680,
      "Ġmendukung": 2681,
      "Ġplanet": 2682,
      "ical": 2683,
      "agam": 2684,
      "Ġus": 2685,
      "ria": 2686,
      "Ġmengaj": 2687,
      "Ġterkait": 2688,
      "ibatkan": 2689,
      "gas": 2690,
      "Ġbatang": 2691,
      "ubernur": 2692,
      "alon": 2693,
      "Ġolahraga": 2694,
      "atuh": 2695,
      "Ġsebenarnya": 2696,
      "ae": 2697,
      "Ġmenjalan": 2698,
      "Ġpenggunaan": 2699,
      "oran": 2700,
      "Ġkini": 2701,
      "eoptera": 2702,
      "omat": 2703,
      "ĠMet": 2704,
      "ĠColeoptera": 2705,
      "agn": 2706,
      "isode": 2707,
      "uga": 2708,
      "Ġdom": 2709,
      "ĠTak": 2710,
      "ĠArab": 2711,
      "Ġmembangun": 2712,
      "Ġsta": 2713,
      "gala": 2714,
      "Ġpendek": 2715,
      "Ġaktif": 2716,
      "Ġdah": 2717,
      "ĠGen": 2718,
      "ĠDaerah": 2719,
      "oll": 2720,
      "ema": 2721,
      "ĠKh": 2722,
      "Ġmembeli": 2723,
      "Ġkalau": 2724,
      "Ġperdagangan": 2725,
      "Ġbagus": 2726,
      "ĠSD": 2727,
      "iptakan": 2728,
      "jek": 2729,
      "Ġtambahan": 2730,
      "unani": 2731,
      "Ġbonus": 2732,
      "ilik": 2733,
      "ĠPan": 2734,
      "Ġkerajaan": 2735,
      "iksi": 2736,
      "iew": 2737,
      "itania": 2738,
      "Ġperjalanan": 2739,
      "ome": 2740,
      "Ġmodel": 2741,
      "ous": 2742,
      "Ġorganisasi": 2743,
      "Catatan": 2744,
      "gantikan": 2745,
      "Ġlakukan": 2746,
      "aturan": 2747,
      "iliki": 2748,
      "Pemain": 2749,
      "ĠAustralia": 2750,
      "ĠSan": 2751,
      "Ġstrategi": 2752,
      "tt": 2753,
      "indah": 2754,
      "AM": 2755,
      "Ġkur": 2756,
      "Ġmalam": 2757,
      "ĠSta": 2758,
      "etik": 2759,
      "ecara": 2760,
      "amanan": 2761,
      "ley": 2762,
      "note": 2763,
      "Ġtua": 2764,
      "elan": 2765,
      "Ġputra": 2766,
      "Ġcerita": 2767,
      "ĠGu": 2768,
      "ĠHist": 2769,
      "Ġform": 2770,
      "org": 2771,
      "Ġzaman": 2772,
      "Ġsakit": 2773,
      "Sp": 2774,
      "Kar": 2775,
      "St": 2776,
      "Ġkawasan": 2777,
      "icara": 2778,
      "Ġpekerjaan": 2779,
      "Ġapakah": 2780,
      "Ġband": 2781,
      "Ġmenikah": 2782,
      "ĠPiala": 2783,
      "utuskan": 2784,
      "Ġob": 2785,
      "ĠDewan": 2786,
      "angi": 2787,
      "ĠUd": 2788,
      "gg": 2789,
      "buatan": 2790,
      "ĠSlot": 2791,
      "ahaya": 2792,
      "Ġlokasi": 2793,
      "Ġmemungkinkan": 2794,
      "onf": 2795,
      "oph": 2796,
      "ĠPendidikan": 2797,
      "//": 2798,
      "ĠMalaysia": 2799,
      "Ġib": 2800,
      "benar": 2801,
      "ath": 2802,
      "Ġtokoh": 2803,
      "osa": 2804,
      "Ap": 2805,
      "Ġberla": 2806,
      "Ġhi": 2807,
      "inj": 2808,
      "ĠMela": 2809,
      "Ġikan": 2810,
      "anjian": 2811,
      "frika": 2812,
      "Ġgambar": 2813,
      "udul": 2814,
      "Ġkekuatan": 2815,
      "Ġsis": 2816,
      "umb": 2817,
      "roid": 2818,
      "ric": 2819,
      "abila": 2820,
      "Ġaman": 2821,
      "Ġmau": 2822,
      "ĠSula": 2823,
      "ĠKan": 2824,
      "otel": 2825,
      "load": 2826,
      "ĠKetika": 2827,
      "ĠLiga": 2828,
      "Ġberjalan": 2829,
      "Ġpergi": 2830,
      "://": 2831,
      "rit": 2832,
      "odi": 2833,
      "akt": 2834,
      "Ġdita": 2835,
      "ora": 2836,
      "ĠMon": 2837,
      "ĠTrans": 2838,
      "Ġmeraih": 2839,
      "pun": 2840,
      "Ġmembutuhkan": 2841,
      "Ġcontoh": 2842,
      "Ġur": 2843,
      "Ġtumbuhan": 2844,
      "ll": 2845,
      "anduk": 2846,
      "ĠJudi": 2847,
      "uara": 2848,
      "Ġforex": 2849,
      "olak": 2850,
      "no": 2851,
      "ĠYunani": 2852,
      "ewat": 2853,
      "Ġberat": 2854,
      "Ġkontr": 2855,
      "dalam": 2856,
      "eman": 2857,
      "ĠTrad": 2858,
      "ergi": 2859,
      "umumkan": 2860,
      "Ġmemainkan": 2861,
      "kov": 2862,
      "ight": 2863,
      "Ġpener": 2864,
      "vid": 2865,
      "ibu": 2866,
      "egang": 2867,
      "Ġlokal": 2868,
      "Ġpenuh": 2869,
      "Ġet": 2870,
      "ĠSc": 2871,
      "landia": 2872,
      "ĠTur": 2873,
      "orong": 2874,
      "ĠSpecies": 2875,
      "ĠKu": 2876,
      "abi": 2877,
      "Ġstasiun": 2878,
      "sur": 2879,
      "Ġpand": 2880,
      "tiwa": 2881,
      "BN": 2882,
      "yle": 2883,
      "agi": 2884,
      "Ġrel": 2885,
      "ĠAmeric": 2886,
      "ĠBandung": 2887,
      "Ġbangsa": 2888,
      "Ġmembuka": 2889,
      "Ġbala": 2890,
      "rag": 2891,
      "Ġint": 2892,
      "ĠDa": 2893,
      "Ġberlangsung": 2894,
      "yaran": 2895,
      "Ġep": 2896,
      "Ġkemungkinan": 2897,
      "Ġberikutnya": 2898,
      "emat": 2899,
      "list": 2900,
      "FA": 2901,
      "untu": 2902,
      "Ġsulit": 2903,
      "Jika": 2904,
      "Ġterpercaya": 2905,
      "Ġawalnya": 2906,
      "onia": 2907,
      "emuan": 2908,
      "Ġe": 2909,
      "ĠRa": 2910,
      "urus": 2911,
      "ĠSk": 2912,
      "anjung": 2913,
      "ĠMe": 2914,
      "Ġprofesi": 2915,
      "ĠBour": 2916,
      "ĠPoker": 2917,
      "sama": 2918,
      "ĠBritania": 2919,
      "lob": 2920,
      "agian": 2921,
      "Ġbumi": 2922,
      "Ġbantu": 2923,
      "Ġpembangunan": 2924,
      "Ġlam": 2925,
      "Ġkeras": 2926,
      "emu": 2927,
      "Ġmodern": 2928,
      "deka": 2929,
      "Ġputih": 2930,
      "ĠAceh": 2931,
      "sanakan": 2932,
      "Ġarah": 2933,
      "abak": 2934,
      "ĠBesar": 2935,
      "ingkatan": 2936,
      "ĠGunung": 2937,
      "impinan": 2938,
      "Ġperan": 2939,
      "iputi": 2940,
      "Larva": 2941,
      "Ġstudi": 2942,
      "okus": 2943,
      "ijakan": 2944,
      "bur": 2945,
      "atasi": 2946,
      "anjutkan": 2947,
      "ĠSMA": 2948,
      "ĠPes": 2949,
      "ĠPet": 2950,
      "wesi": 2951,
      "Ġch": 2952,
      "ile": 2953,
      "Ġjasa": 2954,
      "Ġdatabase": 2955,
      "gerak": 2956,
      "ĠKemudian": 2957,
      "iring": 2958,
      "abar": 2959,
      "ts": 2960,
      "ĠSeri": 2961,
      "Ġmempert": 2962,
      "ĠUdara": 2963,
      "ĠDin": 2964,
      "Ġpemimpin": 2965,
      "faatkan": 2966,
      "ĠMic": 2967,
      "ĠSebagai": 2968,
      "Ġpelangg": 2969,
      "ektr": 2970,
      "bil": 2971,
      "bagi": 2972,
      "ĠJalan": 2973,
      "ĠâĢĶ": 2974,
      "Ġpunya": 2975,
      "ĠAfrika": 2976,
      "ĠBank": 2977,
      "ksanakan": 2978,
      "eluarkan": 2979,
      "ĠCara": 2980,
      "aca": 2981,
      "ĠMenurut": 2982,
      "rap": 2983,
      "Ġbet": 2984,
      "Ġmemperoleh": 2985,
      "ebang": 2986,
      "onton": 2987,
      "dus": 2988,
      "Ter": 2989,
      "ĠTekn": 2990,
      "ahami": 2991,
      "Ġmengak": 2992,
      "ĠTe": 2993,
      "Ġwith": 2994,
      "Ġsana": 2995,
      "elaskan": 2996,
      "ean": 2997,
      "Ġmemutuskan": 2998,
      "turunan": 2999,
      "ĠSingap": 3000,
      "jib": 3001,
      "anyol": 3002,
      "Ġhati": 3003,
      "air": 3004,
      "Ġfungsi": 3005,
      "Ġinf": 3006,
      "ĠCheck": 3007,
      "ategori": 3008,
      "ambahkan": 3009,
      "ny": 3010,
      "ĠEm": 3011,
      "Ġbank": 3012,
      "upati": 3013,
      "ĠReading": 3014,
      "atuan": 3015,
      "ĠSpanyol": 3016,
      "edung": 3017,
      "erbangan": 3018,
      "ech": 3019,
      "etisi": 3020,
      "unjung": 3021,
      "Ġbertu": 3022,
      "ĠProf": 3023,
      "evel": 3024,
      "ĠMeskipun": 3025,
      "ĠPemerintah": 3026,
      "erik": 3027,
      "ĠLon": 3028,
      "âĢľ": 3029,
      "ĠPri": 3030,
      "amil": 3031,
      "istiwa": 3032,
      "Ġris": 3033,
      "atihan": 3034,
      "oo": 3035,
      "yp": 3036,
      "ĠAh": 3037,
      "Ã¼": 3038,
      "abis": 3039,
      "Ġmetode": 3040,
      "rell": 3041,
      "Ġpantai": 3042,
      "Ġperh": 3043,
      "uma": 3044,
      "Ġtradisional": 3045,
      "Ġpermukaan": 3046,
      "ahli": 3047,
      "daftar": 3048,
      "artemen": 3049,
      "Ġmeliputi": 3050,
      "Pemeran": 3051,
      "ĠDiakses": 3052,
      "Ġgi": 3053,
      "etapkan": 3054,
      "arge": 3055,
      "baya": 3056,
      "ĠCon": 3057,
      "adar": 3058,
      "Ġmodal": 3059,
      "ser": 3060,
      "Ġdahulu": 3061,
      "epatan": 3062,
      "Ġpat": 3063,
      "Ġgaya": 3064,
      "Ġda": 3065,
      "Ġpeluang": 3066,
      "Ġfis": 3067,
      "Ġbek": 3068,
      "ular": 3069,
      "umsi": 3070,
      "Ġukuran": 3071,
      "isaran": 3072,
      "redit": 3073,
      "sel": 3074,
      "Ġgereja": 3075,
      "ahanan": 3076,
      "Ġsaham": 3077,
      "Ġaj": 3078,
      "baru": 3079,
      "Ġkualitas": 3080,
      "rael": 3081,
      "Ġpec": 3082,
      "Ġac": 3083,
      "Ġid": 3084,
      "ĠMuseum": 3085,
      "angkap": 3086,
      "eph": 3087,
      "Ġmon": 3088,
      "unggu": 3089,
      "umur": 3090,
      "uruan": 3091,
      "dung": 3092,
      "Ġtern": 3093,
      "Ġtugas": 3094,
      "ĠNicol": 3095,
      "Ġsini": 3096,
      "Ġmenampilkan": 3097,
      "Ġmeter": 3098,
      "Ġtangga": 3099,
      "Ġsukses": 3100,
      "ĠUS": 3101,
      "Ġterbentuk": 3102,
      "ĠDPR": 3103,
      "rig": 3104,
      "uf": 3105,
      "Ġpasangan": 3106,
      "Ġkesempatan": 3107,
      "ĠKirk": 3108,
      "alaupun": 3109,
      "ĠForex": 3110,
      "Selain": 3111,
      "visi": 3112,
      "ĠSed": 3113,
      "Ġselanjutnya": 3114,
      "ĠIm": 3115,
      "ĠSalah": 3116,
      "Ġtanduk": 3117,
      "ram": 3118,
      "Ġberg": 3119,
      "Ġno": 3120,
      "irip": 3121,
      "Ġselain": 3122,
      "ĠChecklist": 3123,
      "ĠPat": 3124,
      "aksa": 3125,
      "imantan": 3126,
      "ĠTar": 3127,
      "Ġsurat": 3128,
      "epas": 3129,
      "ĠBur": 3130,
      "ĠInternasional": 3131,
      "ĠBourg": 3132,
      "ĠBali": 3133,
      "elesaikan": 3134,
      "Ġberf": 3135,
      "Ġlengkap": 3136,
      "abang": 3137,
      "ownload": 3138,
      "alahkan": 3139,
      "Ġperkembangan": 3140,
      "inkan": 3141,
      "imia": 3142,
      "Sek": 3143,
      "Ġtotal": 3144,
      "Ġdeposit": 3145,
      "Ġduk": 3146,
      "Ġdana": 3147,
      "ĠOrang": 3148,
      "Ġberjudul": 3149,
      "Sem": 3150,
      "Ġplat": 3151,
      "Ġmaks": 3152,
      "adio": 3153,
      "ĠCity": 3154,
      "Ġbak": 3155,
      "Ġrep": 3156,
      "ĠKong": 3157,
      "adem": 3158,
      "Ġtampil": 3159,
      "ĠGre": 3160,
      "ĠPak": 3161,
      "ebor": 3162,
      "oa": 3163,
      "ĠCatalog": 3164,
      "ogle": 3165,
      "egal": 3166,
      "Ġmul": 3167,
      "Ġtulis": 3168,
      "ĠTav": 3169,
      "Ġdiberi": 3170,
      "Ada": 3171,
      "Ġsekaligus": 3172,
      "ee": 3173,
      "opi": 3174,
      "ĠWal": 3175,
      "Ġseder": 3176,
      "yani": 3177,
      "itra": 3178,
      "enaga": 3179,
      "ĠTet": 3180,
      "ocok": 3181,
      "Ġmenit": 3182,
      "ĠAnnual": 3183,
      "rard": 3184,
      "ĠIII": 3185,
      "iss": 3186,
      "ĠSulawesi": 3187,
      "Ġikut": 3188,
      "igh": 3189,
      "Ġsar": 3190,
      "ire": 3191,
      "dan": 3192,
      "ukul": 3193,
      "Ġangk": 3194,
      "Ġistilah": 3195,
      "Ġfasilitas": 3196,
      "Ġmantan": 3197,
      "Ġkeuangan": 3198,
      "Ġhutan": 3199,
      "yn": 3200,
      "ĠYah": 3201,
      "Ġkantor": 3202,
      "Ġangka": 3203,
      "Ġgaris": 3204,
      "irkan": 3205,
      "Ġdrama": 3206,
      "impan": 3207,
      "Ġalasan": 3208,
      "Ġberakhir": 3209,
      "ited": 3210,
      "ĠCatalogue": 3211,
      "Ġkomputer": 3212,
      "mar": 3213,
      "Ġserangan": 3214,
      "Ġditebang": 3215,
      "Ġmisalnya": 3216,
      "kar": 3217,
      "ĠKepulauan": 3218,
      "uatan": 3219,
      "Ġsur": 3220,
      "ĠDav": 3221,
      "ITAN": 3222,
      "Ġmeninggalkan": 3223,
      "asikan": 3224,
      "Ġmeminta": 3225,
      "daya": 3226,
      "anjar": 3227,
      "Ġmerek": 3228,
      "Ġbantuan": 3229,
      "acara": 3230,
      "ĠPusat": 3231,
      "Ġmengebor": 3232,
      "ĠNicolson": 3233,
      "ĠBen": 3234,
      "lack": 3235,
      "ĠTITAN": 3236,
      "ade": 3237,
      "ĠStudi": 3238,
      "ĠITIS": 3239,
      "ham": 3240,
      "ĠPress": 3241,
      "akilian": 3242,
      "ĠBailly": 3243,
      "ĠTavakilian": 3244,
      "utup": 3245,
      "via": 3246,
      "ĠOuv": 3247,
      "ĠBourgoin": 3248,
      "ĠLondon": 3249,
      "unjungi": 3250,
      "argeon": 3251,
      "ĠBaillargeon": 3252,
      "ĠOrrell": 3253,
      "ĠRoskov": 3254,
      "ĠOuvrard": 3255,
      "linawan": 3256,
      "ĠBisby": 3257,
      "ĠPaglinawan": 3258,
      "esai": 3259,
      "tan": 3260,
      "TV": 3261,
      "Seperti": 3262,
      "ĠFor": 3263,
      "Ġdibandingkan": 3264,
      "mart": 3265,
      "iap": 3266,
      "oli": 3267,
      "Ġsegala": 3268,
      "elompok": 3269,
      "pek": 3270,
      "ĠĊĠĊĠĊĠĊ": 3271,
      "Ġjangan": 3272,
      "elenggara": 3273,
      "aha": 3274,
      "ĠMuhammad": 3275,
      "etahuan": 3276,
      "engaruhi": 3277,
      "Ġpanas": 3278,
      "Ġpengg": 3279,
      "abat": 3280,
      "ĠSementara": 3281,
      "Ġahli": 3282,
      "Ġbuat": 3283,
      "Ġide": 3284,
      "Ġmerah": 3285,
      "akup": 3286,
      "amaan": 3287,
      "ĠOp": 3288,
      "Ġulang": 3289,
      "Ġpenelitian": 3290,
      "ĠMil": 3291,
      "rata": 3292,
      "ĠBandar": 3293,
      "Ġadministr": 3294,
      "asaran": 3295,
      "ĠIsrael": 3296,
      "ĠUmum": 3297,
      "ambarkan": 3298,
      "unakan": 3299,
      "Ġsh": 3300,
      "Ġterbaru": 3301,
      "Ġprofesional": 3302,
      "Ġrata": 3303,
      "eluruhan": 3304,
      "ĠComp": 3305,
      "Ġsing": 3306,
      "Ġlistrik": 3307,
      "Ġketurunan": 3308,
      "edaan": 3309,
      "jemen": 3310,
      "Ġab": 3311,
      "atangan": 3312,
      "warna": 3313,
      "esu": 3314,
      "ĠKen": 3315,
      "luk": 3316,
      "ĠKam": 3317,
      "lex": 3318,
      "engar": 3319,
      "Ġpenghargaan": 3320,
      "ĠPur": 3321,
      "Ġjawab": 3322,
      "Ġoperasi": 3323,
      "chi": 3324,
      "atin": 3325,
      "ĠKomp": 3326,
      "Ke": 3327,
      "Ġtitik": 3328,
      ",âĢĿ": 3329,
      "elajari": 3330,
      "Ġbintang": 3331,
      "iau": 3332,
      "ĠGro": 3333,
      "ĠTNI": 3334,
      "ĠPap": 3335,
      "ĠBanyak": 3336,
      "EN": 3337,
      "ominasi": 3338,
      "Ġpercaya": 3339,
      "hatikan": 3340,
      "inyak": 3341,
      "Ġataupun": 3342,
      "ale": 3343,
      "esus": 3344,
      "Ġjabatan": 3345,
      "Ġnaik": 3346,
      "sen": 3347,
      "Ġtinda": 3348,
      "ĠEks": 3349,
      "ĠCenter": 3350,
      "Ġfoto": 3351,
      "Ġdarah": 3352,
      "Ġbebas": 3353,
      "ten": 3354,
      "ĠMaj": 3355,
      "akult": 3356,
      "ĠFran": 3357,
      "Ġmenentukan": 3358,
      "sc": 3359,
      "Ġlalat": 3360,
      "Ġhtt": 3361,
      "ĠĊĊĠ": 3362,
      "its": 3363,
      "ĠYo": 3364,
      "erasi": 3365,
      "ĠTapi": 3366,
      "endaraan": 3367,
      "Ġnon": 3368,
      "ĠKalimantan": 3369,
      "ĠBe": 3370,
      "antik": 3371,
      "ES": 3372,
      "liam": 3373,
      "ĠChar": 3374,
      "Ġpengalaman": 3375,
      "istan": 3376,
      "Ġdiperk": 3377,
      "elis": 3378,
      "Ġpad": 3379,
      "ĠHistory": 3380,
      "ĠÃ": 3381,
      "ĠCor": 3382,
      "ĠHa": 3383,
      "Ġterd": 3384,
      "Kota": 3385,
      "roker": 3386,
      "akultas": 3387,
      "uskup": 3388,
      "illa": 3389,
      "Ġberd": 3390,
      "andia": 3391,
      "ĠSaya": 3392,
      "ĠSumatera": 3393,
      "yakarta": 3394,
      "uhnya": 3395,
      "Ġberisi": 3396,
      "mainkan": 3397,
      "alitas": 3398,
      "Ġsang": 3399,
      "ganya": 3400,
      "Ġlanjut": 3401,
      "ogyakarta": 3402,
      "ney": 3403,
      "ĠSultan": 3404,
      "Ġtertinggi": 3405,
      "osisi": 3406,
      "urabaya": 3407,
      "Ġpakai": 3408,
      "Ġmendirikan": 3409,
      "tinya": 3410,
      "Ġkeseluruhan": 3411,
      "Ġmengubah": 3412,
      "Ġtampak": 3413,
      "Ġtercatat": 3414,
      "antara": 3415,
      "tain": 3416,
      "itung": 3417,
      "amin": 3418,
      "Ġinter": 3419,
      "Ġsiap": 3420,
      "Äģ": 3421,
      "yakin": 3422,
      "ye": 3423,
      "Ġsederhana": 3424,
      "Ġmengembangkan": 3425,
      "Ġlangkah": 3426,
      "Ġproyek": 3427,
      "Ġindi": 3428,
      "Ġaktivitas": 3429,
      "ebula": 3430,
      "ester": 3431,
      "phone": 3432,
      "jau": 3433,
      "Kem": 3434,
      "Ġenam": 3435,
      "Ġbadan": 3436,
      "adilan": 3437,
      "Ġmati": 3438,
      "estiv": 3439,
      "Ġkeadaan": 3440,
      "ĠRoma": 3441,
      "Ġpemilihan": 3442,
      "ÃŃ": 3443,
      "uncak": 3444,
      "Ġjatuh": 3445,
      "Ġunit": 3446,
      "Ġberper": 3447,
      "arikan": 3448,
      "Ġinvestasi": 3449,
      "uskupan": 3450,
      "dam": 3451,
      "Ġdimainkan": 3452,
      "Ġdar": 3453,
      "ĠDen": 3454,
      "Ġcer": 3455,
      "ĠYou": 3456,
      "rah": 3457,
      "Dengan": 3458,
      "ĠGer": 3459,
      "Ġtoko": 3460,
      "ĠSum": 3461,
      "estival": 3462,
      "asakan": 3463,
      "ãĥ": 3464,
      "yangkan": 3465,
      "ĠBul": 3466,
      "Ġdipakai": 3467,
      "Ġmenyer": 3468,
      "ifat": 3469,
      "elurahan": 3470,
      "Ġkamp": 3471,
      "sit": 3472,
      "ĠDusun": 3473,
      "ĠOleh": 3474,
      "Ã³": 3475,
      "oviet": 3476,
      "iling": 3477,
      "ĠKor": 3478,
      "Ġdew": 3479,
      "ĠMay": 3480,
      "ute": 3481,
      "Ġmacam": 3482,
      "ikiran": 3483,
      "Ġpenyanyi": 3484,
      "amai": 3485,
      "Ġrakyat": 3486,
      "undang": 3487,
      "ated": 3488,
      "Ġsempat": 3489,
      "oksi": 3490,
      "Pemb": 3491,
      "ĠSuk": 3492,
      "Ġjarak": 3493,
      "astra": 3494,
      "kota": 3495,
      "rus": 3496,
      "Ġku": 3497,
      "aba": 3498,
      "ĠMy": 3499,
      "ĠGame": 3500,
      "ĠRumah": 3501,
      "okasi": 3502,
      "Ġder": 3503,
      "ĠKol": 3504,
      "fi": 3505,
      "utar": 3506,
      "Ġdulu": 3507,
      "Or": 3508,
      "erj": 3509,
      "Ġnebula": 3510,
      "Ġli": 3511,
      "ĠISBN": 3512,
      "Ġvir": 3513,
      "ĠTuhan": 3514,
      "Ġputri": 3515,
      "dap": 3516,
      "uji": 3517,
      "arus": 3518,
      "urangi": 3519,
      "ĠKo": 3520,
      "alif": 3521,
      "Cara": 3522,
      "Ġdiadakan": 3523,
      "PS": 3524,
      "top": 3525,
      "ove": 3526,
      "Ġakses": 3527,
      "ĠInf": 3528,
      "Ġblog": 3529,
      "pir": 3530,
      "Ġfrom": 3531,
      "Ġtanaman": 3532,
      "ace": 3533,
      "Ġalami": 3534,
      "ĠRev": 3535,
      "bel": 3536,
      "Ġberdiri": 3537,
      "Ġselesai": 3538,
      "ĠJenderal": 3539,
      "ĠPel": 3540,
      "une": 3541,
      "Ġkematian": 3542,
      "ukai": 3543,
      "Ġteknik": 3544,
      "align": 3545,
      "ĠEk": 3546,
      "Ġbertemu": 3547,
      "ĠHari": 3548,
      "uw": 3549,
      "Ġkonf": 3550,
      "ĠTinggi": 3551,
      "jadikan": 3552,
      "Ġpasi": 3553,
      "Ġkehilangan": 3554,
      "dian": 3555,
      "adapi": 3556,
      "den": 3557,
      "ĠKami": 3558,
      "ĠPangeran": 3559,
      "dion": 3560,
      "ĠIst": 3561,
      "jad": 3562,
      "uci": 3563,
      "ĠWakil": 3564,
      "ony": 3565,
      "Ġguru": 3566,
      "Ġkarier": 3567,
      "sy": 3568,
      "ega": 3569,
      "laim": 3570,
      "Ġdimiliki": 3571,
      "Ġ...": 3572,
      "edan": 3573,
      "Ġkabupaten": 3574,
      "alih": 3575,
      "ĠJos": 3576,
      ".\".": 3577,
      "ĠHan": 3578,
      "asinya": 3579,
      "ĠRakyat": 3580,
      "ĠYogyakarta": 3581,
      "Ġkekuasaan": 3582,
      "ling": 3583,
      "ower": 3584,
      "Ġberwarna": 3585,
      "utradarai": 3586,
      "ĠSoviet": 3587,
      "Ġdigital": 3588,
      "zi": 3589,
      "AL": 3590,
      "Ġmengirim": 3591,
      "Ġialah": 3592,
      "efin": 3593,
      "Ġstyle": 3594,
      "jaya": 3595,
      "ĠWilayah": 3596,
      "osp": 3597,
      "kitab": 3598,
      "Ġdag": 3599,
      "ID": 3600,
      "Ġgol": 3601,
      "yarat": 3602,
      "Ġmurah": 3603,
      "Ġturun": 3604,
      "ĠAmerican": 3605,
      "tup": 3606,
      "dari": 3607,
      "empatkan": 3608,
      "ĠSingapura": 3609,
      "ica": 3610,
      "resi": 3611,
      "alap": 3612,
      "ĠLalat": 3613,
      "ĠGar": 3614,
      "ĠSeh": 3615,
      "Ġhitam": 3616,
      "Ġbunga": 3617,
      "Ġtumbuh": 3618,
      "ĠDiptera": 3619,
      "Ġdipimpin": 3620,
      "Ġpenerbangan": 3621,
      "Ġanti": 3622,
      "ĠWeb": 3623,
      "Ġberusaha": 3624,
      "Ġmenjaga": 3625,
      "ĠMod": 3626,
      "Ġhewan": 3627,
      "Ġpengembangan": 3628,
      "Species": 3629,
      "Ġsebab": 3630,
      "KI": 3631,
      "bon": 3632,
      "Ġtiba": 3633,
      "ĠKemen": 3634,
      "uncurkan": 3635,
      "Ġbila": 3636,
      "tim": 3637,
      "Ġlewat": 3638,
      "Ġkhususnya": 3639,
      "ĠFilip": 3640,
      "dir": 3641,
      "ĠBin": 3642,
      "Ġemas": 3643,
      "ume": 3644,
      "negara": 3645,
      "Ġtentara": 3646,
      "urnamen": 3647,
      "ĠTenggara": 3648,
      "Ġribu": 3649,
      "Ġtentunya": 3650,
      "Ġstruktur": 3651,
      "Ġam": 3652,
      "Ġmenciptakan": 3653,
      "ĠGubernur": 3654,
      "Ġkhas": 3655,
      "ewa": 3656,
      "usak": 3657,
      "lish": 3658,
      "ĠPerdana": 3659,
      "Ġdijadikan": 3660,
      "jualan": 3661,
      "Ġberbasis": 3662,
      "Ġorbit": 3663,
      "Ġex": 3664,
      "Ġlem": 3665,
      "ĠTok": 3666,
      "ese": 3667,
      "unggal": 3668,
      "ovel": 3669,
      "ON": 3670,
      "Ġsitu": 3671,
      "ĠMart": 3672,
      "asta": 3673,
      "ĠMc": 3674,
      "ĠBanjar": 3675,
      "Ġpelanggan": 3676,
      "jata": 3677,
      "eld": 3678,
      "Ġcocok": 3679,
      "omba": 3680,
      "ĠItu": 3681,
      "ĠOff": 3682,
      "ambut": 3683,
      "Ġkebijakan": 3684,
      "Ġmemenuhi": 3685,
      "ĠTa": 3686,
      "alian": 3687,
      "Ġhalaman": 3688,
      "Ġmeman": 3689,
      "hari": 3690,
      "rav": 3691,
      "Ġmencakup": 3692,
      "askah": 3693,
      "Ġpul": 3694,
      "ujan": 3695,
      "Ġelektr": 3696,
      "antinya": 3697,
      "alisis": 3698,
      "ĠMel": 3699,
      "ĠMana": 3700,
      "ĠMark": 3701,
      "ĠSurabaya": 3702,
      "bor": 3703,
      "ĠProgram": 3704,
      "ĠKet": 3705,
      "Ġgerakan": 3706,
      "oga": 3707,
      "tifikasi": 3708,
      "Ġpeserta": 3709,
      "ĠRomawi": 3710,
      "Ġbergerak": 3711,
      "Ġternyata": 3712,
      "Ġspesi": 3713,
      "Ġses": 3714,
      "ĠMur": 3715,
      "ajak": 3716,
      "Ġperingkat": 3717,
      "Ġkonsep": 3718,
      "Menurut": 3719,
      "satunya": 3720,
      "oman": 3721,
      "sikan": 3722,
      "iru": 3723,
      "ĠWilliam": 3724,
      "Ġth": 3725,
      "ree": 3726,
      "bah": 3727,
      "ero": 3728,
      "lobal": 3729,
      "ukit": 3730,
      "alisasi": 3731,
      "Ġdukungan": 3732,
      "truk": 3733,
      "Ġpresiden": 3734,
      "Ġbus": 3735,
      "elajaran": 3736,
      "Ġtransaksi": 3737,
      "Ġgel": 3738,
      "intu": 3739,
      "ĠAngg": 3740,
      "elapan": 3741,
      "wang": 3742,
      "Ġpartai": 3743,
      "Ġserial": 3744,
      "ows": 3745,
      "hanc": 3746,
      "titusi": 3747,
      "amah": 3748,
      "ips": 3749,
      "Ġbel": 3750,
      "luas": 3751,
      "ky": 3752,
      "Ġbatas": 3753,
      "ider": 3754,
      "ĠPerj": 3755,
      "Ġmar": 3756,
      "Ġnamanya": 3757,
      "Ġsuka": 3758,
      "emui": 3759,
      "oma": 3760,
      "obatan": 3761,
      "lemen": 3762,
      "nam": 3763,
      "ĠRI": 3764,
      "Ġmembaca": 3765,
      "Ġmahasiswa": 3766,
      "enakan": 3767,
      "lawan": 3768,
      "iburan": 3769,
      "Ġburuk": 3770,
      "Ġtemp": 3771,
      "Ġpoin": 3772,
      "Ġpertamanya": 3773,
      "Ġkeduanya": 3774,
      "Ak": 3775,
      "ĠSMP": 3776,
      "Ġarea": 3777,
      "lok": 3778,
      "ĠPark": 3779,
      "iro": 3780,
      "Ġupaya": 3781,
      "Ġterlebih": 3782,
      "umpang": 3783,
      "Ġkendaraan": 3784,
      "Ġkan": 3785,
      "ĠAli": 3786,
      "ĠÎ": 3787,
      "Ġkalah": 3788,
      "idur": 3789,
      "BC": 3790,
      "ĠJaya": 3791,
      "enalkan": 3792,
      "Ġta": 3793,
      "Ġseks": 3794,
      "erdeka": 3795,
      "ford": 3796,
      "ox": 3797,
      "Ġtanda": 3798,
      "ikahan": 3799,
      "ĠNus": 3800,
      "adr": 3801,
      "eth": 3802,
      "elenggarakan": 3803,
      "Ġsiswa": 3804,
      "engkapi": 3805,
      "Ã¶": 3806,
      "indari": 3807,
      "enangkan": 3808,
      "tumbuhan": 3809,
      "oal": 3810,
      "Ġpublik": 3811,
      "ĠBola": 3812,
      "Ġpembuatan": 3813,
      "ĠHin": 3814,
      "Ġpertanian": 3815,
      "Ġenergi": 3816,
      "Ġmark": 3817,
      "ĠHol": 3818,
      "Ġtogel": 3819,
      "Ġterpilih": 3820,
      "wakilan": 3821,
      "ambang": 3822,
      "Ġpopulasi": 3823,
      "way": 3824,
      "ektor": 3825,
      "ahankan": 3826,
      "ĠSebelum": 3827,
      "Ġvan": 3828,
      "Ġmain": 3829,
      "Ġdiambil": 3830,
      "egah": 3831,
      "ound": 3832,
      "sus": 3833,
      "engahan": 3834,
      "Ġfaktor": 3835,
      "Ġberita": 3836,
      "Desa": 3837,
      "ĠSar": 3838,
      "Ġasing": 3839,
      "lasi": 3840,
      "Ġhid": 3841,
      "ujud": 3842,
      "ĠMesir": 3843,
      "Ġtindakan": 3844,
      "Ġpembayaran": 3845,
      "que": 3846,
      "ĠVol": 3847,
      "Ġkeamanan": 3848,
      "Ġreg": 3849,
      "ĠPend": 3850,
      "Ġmengandung": 3851,
      "Ġsy": 3852,
      "Ġminyak": 3853,
      "Ġinst": 3854,
      "Ġkaum": 3855,
      "esan": 3856,
      "Ġkeputusan": 3857,
      "eni": 3858,
      "kah": 3859,
      "Ġmenyelesaikan": 3860,
      "Ġdipilih": 3861,
      "ĠBahkan": 3862,
      "span": 3863,
      "Ġterbuka": 3864,
      "Ġlemb": 3865,
      "ĠBu": 3866,
      "unak": 3867,
      "ĠLet": 3868,
      "SM": 3869,
      "airan": 3870,
      "ĠEng": 3871,
      "ĠKej": 3872,
      "ensis": 3873,
      "Ġula": 3874,
      "Ġneg": 3875,
      "Ġantaranya": 3876,
      "ings": 3877,
      "ĠYahudi": 3878,
      "ĠAz": 3879,
      "irakan": 3880,
      "Ġmenjelaskan": 3881,
      "Ġjangka": 3882,
      "Ġistri": 3883,
      "ĠKr": 3884,
      "oft": 3885,
      "guna": 3886,
      "Ġpengetahuan": 3887,
      "Ġorgan": 3888,
      "ĠInstitu": 3889,
      "juan": 3890,
      "Ġped": 3891,
      "Ġkategori": 3892,
      "lind": 3893,
      "Ġdibentuk": 3894,
      "Ġepisode": 3895,
      "Ġpotensi": 3896,
      "ĠSim": 3897,
      "Ġbabak": 3898,
      "adah": 3899,
      "ĠAbdul": 3900,
      "Ġdr": 3901,
      "Ġantar": 3902,
      "Ch": 3903,
      "Ġstatus": 3904,
      "Ġpohon": 3905,
      "Ġgunakan": 3906,
      "Ġberhar": 3907,
      "obat": 3908,
      "Ġgagal": 3909,
      "Ġmemakai": 3910,
      "Ġtop": 3911,
      "udukan": 3912,
      "ĠPertama": 3913,
      "Mes": 3914,
      "Ġrencana": 3915,
      "sekarang": 3916,
      "Ġsaudara": 3917,
      "ĠAf": 3918,
      "Ġmateri": 3919,
      "Ġkomunitas": 3920,
      "Ġhadir": 3921,
      "ĠBupati": 3922,
      "Ġbertahan": 3923,
      "kr": 3924,
      "ĠBal": 3925,
      "ĠDom": 3926,
      "ĠPi": 3927,
      "Ġmanfaat": 3928,
      "sik": 3929,
      "Ġdebut": 3930,
      "Ġmelanjutkan": 3931,
      "Dem": 3932,
      "ĠKedua": 3933,
      "Ġpindah": 3934,
      "ribusi": 3935,
      "ko": 3936,
      "ĠTaman": 3937,
      "ake": 3938,
      "Ġmenjadikan": 3939,
      "Kep": 3940,
      "ipta": 3941,
      "ĠAndroid": 3942,
      "Ġdibagi": 3943,
      "Ġmaj": 3944,
      "ĠBers": 3945,
      "Ġmirip": 3946,
      "Ġlembaga": 3947,
      "pro": 3948,
      "ograp": 3949,
      "ebat": 3950,
      "ĠMaka": 3951,
      "fik": 3952,
      "Ġsw": 3953,
      "ĠKon": 3954,
      "enteng": 3955,
      "OS": 3956,
      "orium": 3957,
      "ĠGoogle": 3958,
      "anaan": 3959,
      "Ġsifat": 3960,
      "tis": 3961,
      "ĠSab": 3962,
      "andai": 3963,
      "ĠStar": 3964,
      "Ġmagn": 3965,
      "Ġdewasa": 3966,
      "Ġberagam": 3967,
      "ĠBro": 3968,
      "Ġge": 3969,
      "ella": 3970,
      "Ġdiproduksi": 3971,
      "ĠData": 3972,
      "Ġmenjual": 3973,
      "Ġimp": 3974,
      "Ġmengumumkan": 3975,
      "Ġberusia": 3976,
      "Ġpeda": 3977,
      "ĠEs": 3978,
      "Ġoper": 3979,
      "Ġmenjalankan": 3980,
      "ĠYesus": 3981,
      "ĠJo": 3982,
      "ĠDar": 3983,
      "elam": 3984,
      "Ġpositif": 3985,
      "Ġsehari": 3986,
      "laba": 3987,
      "Ġtenaga": 3988,
      "ĠKur": 3989,
      "Ġcalon": 3990,
      "Ġkode": 3991,
      "ĠSedangkan": 3992,
      "Ġstandar": 3993,
      "Ġmeja": 3994,
      "egun": 3995,
      "orit": 3996,
      "Ġterlibat": 3997,
      "Ġbroker": 3998,
      "Ġdokter": 3999,
      "Ġdiperlukan": 4000,
      "Ġsik": 4001,
      "Ġplatform": 4002,
      "Ġsenjata": 4003,
      "Ġsus": 4004,
      "unci": 4005,
      "over": 4006,
      "Ġsc": 4007,
      "ĠStasiun": 4008,
      "aket": 4009,
      "abrik": 4010,
      "Ġberbahasa": 4011,
      "Ġpersen": 4012,
      "uasai": 4013,
      "ĠSub": 4014,
      "tas": 4015,
      "unjukan": 4016,
      "lic": 4017,
      "ental": 4018,
      "Ġfr": 4019,
      "Ġpilih": 4020,
      "Ġdisutradarai": 4021,
      "Ġnyaman": 4022,
      "ĠMi": 4023,
      "Ġer": 4024,
      "Pol": 4025,
      "Ġkalangan": 4026,
      "ĠKim": 4027,
      "Ġmenolak": 4028,
      "asilan": 4029,
      "Ġfisik": 4030,
      "Ġprim": 4031,
      "Ġbandar": 4032,
      "Ġmenggantikan": 4033,
      "ĠKris": 4034,
      "ĠFilipina": 4035,
      "ET": 4036,
      "ebook": 4037,
      "ĠSchool": 4038,
      "Ġminggu": 4039,
      "ĠLagu": 4040,
      "oth": 4041,
      "Ġindivid": 4042,
      "Bahasa": 4043,
      "Ġes": 4044,
      "Ġapabila": 4045,
      "ĠEr": 4046,
      "ebihan": 4047,
      "erdekaan": 4048,
      "itor": 4049,
      "Ġmengurangi": 4050,
      "ihan": 4051,
      "ations": 4052,
      "onik": 4053,
      "Ġsemuanya": 4054,
      "isten": 4055,
      "eae": 4056,
      "Ġmut": 4057,
      "Ġev": 4058,
      "ĠTai": 4059,
      "raj": 4060,
      "terian": 4061,
      "Saat": 4062,
      "Ġmay": 4063,
      "Ġpenjualan": 4064,
      "Ġvol": 4065,
      "ĠUp": 4066,
      "uruf": 4067,
      "Ġpelayanan": 4068,
      "pot": 4069,
      "Ġperistiwa": 4070,
      "Ġgunung": 4071,
      "Mus": 4072,
      "andan": 4073,
      "anyaan": 4074,
      "ĠMag": 4075,
      "Ġtidur": 4076,
      "ĠSing": 4077,
      "ando": 4078,
      "ĠBudd": 4079,
      "ĠSatu": 4080,
      "Ġdisi": 4081,
      "Ġleg": 4082,
      "tris": 4083,
      "ĠIlmu": 4084,
      "Ġsatunya": 4085,
      "Ġpendiri": 4086,
      "krip": 4087,
      "ĠAku": 4088,
      "osis": 4089,
      "iade": 4090,
      "okal": 4091,
      "ĠSri": 4092,
      "leks": 4093,
      "raw": 4094,
      "Berikut": 4095,
      "elang": 4096,
      "ĠEur": 4097,
      "Ġlahan": 4098,
      "emar": 4099,
      "Ġmenikmati": 4100,
      "icial": 4101,
      "Mar": 4102,
      "Ġsiapa": 4103,
      "sis": 4104,
      "omatis": 4105,
      "ĠParis": 4106,
      "pur": 4107,
      "ĠAnak": 4108,
      "isipasi": 4109,
      "Ġsemb": 4110,
      "for": 4111,
      "tions": 4112,
      "Ġopsi": 4113,
      "ĠÐ": 4114,
      "Ġperp": 4115,
      "ato": 4116,
      "ĠTo": 4117,
      "versi": 4118,
      "Ġtur": 4119,
      "Ġtrader": 4120,
      "Ġperbedaan": 4121,
      "my": 4122,
      "ĠSuper": 4123,
      "Ġmengalahkan": 4124,
      "Ġumat": 4125,
      "ĠKi": 4126,
      "ariasi": 4127,
      "ĠAlkitab": 4128,
      "BS": 4129,
      "erahkan": 4130,
      "intangi": 4131,
      "ĠSeperti": 4132,
      "elaks": 4133,
      "ĠMor": 4134,
      "Ġperc": 4135,
      "ĠMuslim": 4136,
      "ĠNomor": 4137,
      "ãģ": 4138,
      "ahu": 4139,
      "Ġrem": 4140,
      "ukur": 4141,
      "ĠDo": 4142,
      "arak": 4143,
      "Ġberbentuk": 4144,
      "intas": 4145,
      "Ġmenemp": 4146,
      "entar": 4147,
      "tasi": 4148,
      "erus": 4149,
      "ĠKeka": 4150,
      "erintahan": 4151,
      "ĠSun": 4152,
      "martphone": 4153,
      "ĠGrand": 4154,
      "Ġpukul": 4155,
      "ĠNa": 4156,
      "Ġdek": 4157,
      "lahir": 4158,
      "card": 4159,
      "Ġbersifat": 4160,
      "ĊĠĊ": 4161,
      "Ġperse": 4162,
      "Ġkuno": 4163,
      "guruan": 4164,
      "impiade": 4165,
      "Ġkos": 4166,
      "imbol": 4167,
      "Ġterbatas": 4168,
      "ĠAgen": 4169,
      "Ġprodus": 4170,
      "Ġhujan": 4171,
      "urusan": 4172,
      "Ġsah": 4173,
      "tual": 4174,
      "ĠSelama": 4175,
      "dip": 4176,
      "mon": 4177,
      "US": 4178,
      "ty": 4179,
      "eral": 4180,
      "Ġaturan": 4181,
      "ĠâĢĺ": 4182,
      "ĠPhilip": 4183,
      "ĠTanjung": 4184,
      "portasi": 4185,
      "Ġlayar": 4186,
      "Ġkorban": 4187,
      "ĠFI": 4188,
      "AD": 4189,
      "ekanan": 4190,
      "Ġunik": 4191,
      "ĠBadan": 4192,
      "Ġpengaruh": 4193,
      "alang": 4194,
      "ĠAll": 4195,
      "Ġsig": 4196,
      "Ġmemahami": 4197,
      "are": 4198,
      "mb": 4199,
      "Ġlunak": 4200,
      "ĠSecara": 4201,
      "Ġkela": 4202,
      "ashi": 4203,
      "Ġkak": 4204,
      "ition": 4205,
      "Ġmengeluarkan": 4206,
      "ĠDavid": 4207,
      "Ġpemilik": 4208,
      "Ġjuara": 4209,
      "Ġmelibatkan": 4210,
      "yal": 4211,
      "ike": 4212,
      "ĠUtama": 4213,
      "Ġberc": 4214,
      "app": 4215,
      "ĠBisnis": 4216,
      "alagi": 4217,
      "ĠRec": 4218,
      "Ġbertar": 4219,
      "ĠVal": 4220,
      "ania": 4221,
      "ail": 4222,
      "atau": 4223,
      "ĠHen": 4224,
      "Ġayahnya": 4225,
      "back": 4226,
      "ĠFakultas": 4227,
      "ĠKanada": 4228,
      "INE": 4229,
      "PP": 4230,
      "ĠAwards": 4231,
      "itis": 4232,
      "Ġkebanyakan": 4233,
      "Ġtik": 4234,
      "yataan": 4235,
      "emahan": 4236,
      "ander": 4237,
      "Pert": 4238,
      "ajalah": 4239,
      "ĠPlay": 4240,
      "hail": 4241,
      "Ġrev": 4242,
      "ewati": 4243,
      "ĠKelurahan": 4244,
      "ĠTetapi": 4245,
      "endal": 4246,
      "versitas": 4247,
      "itasi": 4248,
      "Ġkecepatan": 4249,
      "Ġdilihat": 4250,
      "ĠZh": 4251,
      "gang": 4252,
      "Ġmenengah": 4253,
      "Ġmenghub": 4254,
      "Ġkimia": 4255,
      "inet": 4256,
      "ĠSang": 4257,
      "uhu": 4258,
      "Ġburung": 4259,
      "burg": 4260,
      "porkan": 4261,
      "Ġtab": 4262,
      "Ġmotor": 4263,
      "elahiran": 4264,
      "Ġdiangkat": 4265,
      "Ġdikembangkan": 4266,
      "ĠSemua": 4267,
      "ĠJames": 4268,
      "ĠNational": 4269,
      "mark": 4270,
      "Ġmenurun": 4271,
      "ehidupan": 4272,
      "ĠLap": 4273,
      "ĠIbu": 4274,
      "Ġoff": 4275,
      "ĠPeny": 4276,
      "Ġmerilis": 4277,
      "omenda": 4278,
      "ĠMari": 4279,
      "umpulan": 4280,
      "Ġmenyerang": 4281,
      "hoa": 4282,
      "okan": 4283,
      "Ġmemimpin": 4284,
      "poran": 4285,
      "Ġefektif": 4286,
      "unikasi": 4287,
      "ĠMobil": 4288,
      "Ġperjudian": 4289,
      "Ġ+": 4290,
      "Ġkepem": 4291,
      "ru": 4292,
      "Ġdipas": 4293,
      "ĠPerusahaan": 4294,
      "ĠKas": 4295,
      "Ġkamar": 4296,
      "encan": 4297,
      "Ġhadiah": 4298,
      "ĠSat": 4299,
      "angkaian": 4300,
      "Ġboleh": 4301,
      "Ġmo": 4302,
      "ĠLab": 4303,
      "Ġcoba": 4304,
      "ãĤ": 4305,
      "ternatif": 4306,
      "AK": 4307,
      "aram": 4308,
      "cal": 4309,
      "ĠWe": 4310,
      "orge": 4311,
      "Ġtemb": 4312,
      "Ġrisiko": 4313,
      "ise": 4314,
      "Ġkonsumen": 4315,
      "Ġdibuka": 4316,
      "Ġcamp": 4317,
      "Ġpertempuran": 4318,
      "upiter": 4319,
      "Ġsaling": 4320,
      "Ġkompetisi": 4321,
      "Ġmenambahkan": 4322,
      "Ġberbatasan": 4323,
      "Ġdaun": 4324,
      "tip": 4325,
      "bau": 4326,
      "ĠSebuah": 4327,
      "we": 4328,
      "Album": 4329,
      "TI": 4330,
      "ĠNe": 4331,
      "ĠAlbum": 4332,
      "lymp": 4333,
      "ologis": 4334,
      "ĠMelayu": 4335,
      "Ġturnamen": 4336,
      "mo": 4337,
      "che": 4338,
      "stem": 4339,
      "Ġberlaku": 4340,
      "egunungan": 4341,
      "itikus": 4342,
      "Ġwajah": 4343,
      "ĠAv": 4344,
      "ĠBay": 4345,
      "oris": 4346,
      "ild": 4347,
      "Ġperhatian": 4348,
      "Ġunsur": 4349,
      "ĠUnion": 4350,
      "Ġmili": 4351,
      "Ġmelayani": 4352,
      "Ġme": 4353,
      "ĠUnited": 4354,
      "Ġteori": 4355,
      "ĠFac": 4356,
      "ware": 4357,
      "Lalat": 4358,
      "Ia": 4359,
      "jaga": 4360,
      "Ġobjek": 4361,
      "onghoa": 4362,
      "truksi": 4363,
      "zh": 4364,
      "ĠPapua": 4365,
      "ĠAlex": 4366,
      "Ġfinal": 4367,
      "awatan": 4368,
      "ĠMul": 4369,
      "Ġkonten": 4370,
      "Ġdihar": 4371,
      "Ġx": 4372,
      "itt": 4373,
      "ĠCap": 4374,
      "erv": 4375,
      "ress": 4376,
      "ĠLee": 4377,
      "Ġ#": 4378,
      "Ġditerima": 4379,
      "out": 4380,
      "stra": 4381,
      "bar": 4382,
      "ĠBagian": 4383,
      "ulat": 4384,
      "Seri": 4385,
      "indu": 4386,
      "uddin": 4387,
      "Ġpertumbuhan": 4388,
      "Ġpeningkatan": 4389,
      "ĠUr": 4390,
      "aksud": 4391,
      "Ġutamanya": 4392,
      "Ġbar": 4393,
      "Ġpemenang": 4394,
      "lar": 4395,
      "Ġbayi": 4396,
      "atorium": 4397,
      "Ġmembayar": 4398,
      "ann": 4399,
      "Ġotomatis": 4400,
      "Ġcom": 4401,
      "bahasa": 4402,
      "Ġdiant": 4403,
      "anga": 4404,
      "hael": 4405,
      "jing": 4406,
      "Ġadat": 4407,
      "Ġuni": 4408,
      "be": 4409,
      "ugh": 4410,
      "ĠRobert": 4411,
      "urahan": 4412,
      "ĠSil": 4413,
      "edakan": 4414,
      "akili": 4415,
      "umpulkan": 4416,
      "onen": 4417,
      "isahkan": 4418,
      "urangan": 4419,
      "embatan": 4420,
      "gar": 4421,
      "lang": 4422,
      "Namun": 4423,
      "pirasi": 4424,
      "iwayat": 4425,
      "dik": 4426,
      "ĠHukum": 4427,
      "Ġdisebabkan": 4428,
      "Ġbersa": 4429,
      "Ġhilang": 4430,
      "ĠKementerian": 4431,
      "Ġtipe": 4432,
      "intah": 4433,
      "anker": 4434,
      "ĠTom": 4435,
      "Ġkesa": 4436,
      "ille": 4437,
      "ng": 4438,
      "jadian": 4439,
      "onsel": 4440,
      "inggian": 4441,
      "Ġsamping": 4442,
      "ales": 4443,
      "ĠBumi": 4444,
      "ĠBet": 4445,
      "ĠKaisar": 4446,
      "Ġsehat": 4447,
      "bagian": 4448,
      "adu": 4449,
      "Ġtertu": 4450,
      "round": 4451,
      "ĠArt": 4452,
      "Ġnovel": 4453,
      "Ġdibutuhkan": 4454,
      "ĠKekaisaran": 4455,
      "berg": 4456,
      "Ġmemanfaatkan": 4457,
      "ush": 4458,
      "ĠPlanet": 4459,
      "Ġdapatkan": 4460,
      "uskan": 4461,
      "Ġjudul": 4462,
      "ĠTro": 4463,
      "insip": 4464,
      "apak": 4465,
      "Ġberfungsi": 4466,
      "Ġmemastikan": 4467,
      "Ġpart": 4468,
      "ĠMac": 4469,
      "ĠSejak": 4470,
      "epak": 4471,
      "Ġcatatan": 4472,
      "ĠMaria": 4473,
      "aming": 4474,
      "Beberapa": 4475,
      "asitas": 4476,
      "ayaan": 4477,
      "Ġmenghadapi": 4478,
      "Ġteks": 4479,
      "arisan": 4480,
      "ĠPo": 4481,
      "ĠPaul": 4482,
      "Ġtujuh": 4483,
      "efinisi": 4484,
      "ahat": 4485,
      "Ġmengatur": 4486,
      "ope": 4487,
      "ĠBlack": 4488,
      "Anda": 4489,
      "tahun": 4490,
      "Ġkeempat": 4491,
      "ĠAlam": 4492,
      "Ġera": 4493,
      "tarik": 4494,
      "truktur": 4495,
      "ze": 4496,
      "Ġkat": 4497,
      "ĠTanah": 4498,
      "Ġcinta": 4499,
      "ĠHam": 4500,
      "Ġpernikahan": 4501,
      "ĠAri": 4502,
      "ito": 4503,
      "Ġtep": 4504,
      "fa": 4505,
      "gin": 4506,
      "tronom": 4507,
      "AP": 4508,
      "aitan": 4509,
      "damp": 4510,
      "ĠDua": 4511,
      "Ġditemui": 4512,
      "wab": 4513,
      "Ġeksp": 4514,
      "ĠEnter": 4515,
      "Ġdikar": 4516,
      "Ġiklan": 4517,
      "ĠSehingga": 4518,
      "Ġref": 4519,
      "ening": 4520,
      "ĠGa": 4521,
      "epon": 4522,
      "jen": 4523,
      "amakan": 4524,
      "Ġpesan": 4525,
      "ĠEv": 4526,
      "dy": 4527,
      "\")": 4528,
      "los": 4529,
      "Ġorg": 4530,
      "ĠPermainan": 4531,
      "Ġrum": 4532,
      "Ġmisi": 4533,
      "ott": 4534,
      "Ġaliran": 4535,
      "ĠAnggota": 4536,
      "esis": 4537,
      "ĠPortu": 4538,
      "ull": 4539,
      "Ġlawan": 4540,
      "ansi": 4541,
      "ĠNah": 4542,
      "ombang": 4543,
      "abiskan": 4544,
      "inginkan": 4545,
      "Ġmewakili": 4546,
      "Ġberhenti": 4547,
      "Ġberkaitan": 4548,
      "sch": 4549,
      "Ġpenumpang": 4550,
      "Ġpola": 4551,
      "Ġmempertahankan": 4552,
      "ĠOlymp": 4553,
      "Ġcabang": 4554,
      "ĠKesehatan": 4555,
      "Ġindividu": 4556,
      "Ġbe": 4557,
      "isk": 4558,
      "asah": 4559,
      "ĠRed": 4560,
      "Ġmemer": 4561,
      "ĠTurki": 4562,
      "uning": 4563,
      "untungkan": 4564,
      "Ġberperan": 4565,
      "wisata": 4566,
      "ĠWind": 4567,
      "fn": 4568,
      "aktik": 4569,
      "rac": 4570,
      "urah": 4571,
      "Ġgedung": 4572,
      "unggulan": 4573,
      "ĠMasjid": 4574,
      "Ġsupaya": 4575,
      "erit": 4576,
      "ĠDaya": 4577,
      "ene": 4578,
      "Ġkaya": 4579,
      "Ġmemperk": 4580,
      "jana": 4581,
      "eluarga": 4582,
      "oki": 4583,
      "IB": 4584,
      "ĠChina": 4585,
      "OM": 4586,
      "osiasi": 4587,
      "ĠKamu": 4588,
      "Ġtek": 4589,
      "ejabat": 4590,
      "ĠEp": 4591,
      "Ġmembuatnya": 4592,
      "trik": 4593,
      "lain": 4594,
      "ĠPub": 4595,
      "Ġhttp": 4596,
      "ĠSunda": 4597,
      "aji": 4598,
      "uel": 4599,
      "Ġpuncak": 4600,
      "ĠCir": 4601,
      "Ġtulisan": 4602,
      "ĠPenghargaan": 4603,
      "Ġkomunikasi": 4604,
      "ipil": 4605,
      "Ġprom": 4606,
      "retaris": 4607,
      "Ġputaran": 4608,
      "ĠBerikut": 4609,
      "inginan": 4610,
      "eserta": 4611,
      "ĠPadang": 4612,
      "ĠRich": 4613,
      "Ġdiak": 4614,
      "ington": 4615,
      "ĠRad": 4616,
      "ĠPolandia": 4617,
      "Ġkabar": 4618,
      "ĠInternet": 4619,
      "antas": 4620,
      "ĠTw": 4621,
      "vcard": 4622,
      "mus": 4623,
      "TA": 4624,
      "Ġartinya": 4625,
      "Ġtema": 4626,
      "ĠSol": 4627,
      "Ġringan": 4628,
      "Ġkelurahan": 4629,
      "Tidak": 4630,
      "net": 4631,
      "ĠSetiap": 4632,
      "Ġdiikuti": 4633,
      "Ġbelas": 4634,
      "Ġtunggal": 4635,
      "isir": 4636,
      "ĠCinta": 4637,
      "ĠKel": 4638,
      "Ġâ": 4639,
      "intaan": 4640,
      "ĠGroup": 4641,
      "ux": 4642,
      "ĠComm": 4643,
      "ĠChris": 4644,
      "Ġmenggambarkan": 4645,
      "entasi": 4646,
      "ĠMusic": 4647,
      "ĠOb": 4648,
      "egas": 4649,
      "duc": 4650,
      "Ġdemi": 4651,
      "Ġmenganggap": 4652,
      "Ġgenerasi": 4653,
      "Ġpertengahan": 4654,
      "Is": 4655,
      "ĠFestival": 4656,
      "Ġberhubungan": 4657,
      "Ġnyata": 4658,
      "Ġmempelajari": 4659,
      "Ini": 4660,
      "Ġmencegah": 4661,
      "Kom": 4662,
      "Ġmembunuh": 4663,
      "Meng": 4664,
      "Ġbenda": 4665,
      "ĠBog": 4666,
      "Ġradio": 4667,
      "Ġbekas": 4668,
      "Ġpertemuan": 4669,
      "kuat": 4670,
      "uaraan": 4671,
      "Ġlihat": 4672,
      "Ġkadang": 4673,
      "kadang": 4674,
      "irm": 4675,
      "Ġmemasuki": 4676,
      "Ġberoperasi": 4677,
      "Ġaktor": 4678,
      "ustaka": 4679,
      "enting": 4680,
      "Ġdilaksanakan": 4681,
      "besar": 4682,
      "anjutan": 4683,
      "Ġbukti": 4684,
      "ĠColl": 4685,
      "Ġfokus": 4686,
      "ĠAss": 4687,
      "www": 4688,
      "Ġmutlak": 4689,
      "ĠHy": 4690,
      "Ġdikatakan": 4691,
      "Ġterbang": 4692,
      "ĠTang": 4693,
      "entikan": 4694,
      "Ġtergantung": 4695,
      "erjakan": 4696,
      "Ġapapun": 4697,
      "ĠOlimpiade": 4698,
      "Ġtahap": 4699,
      "Ġgas": 4700,
      "ĠRatu": 4701,
      "ĠPela": 4702,
      "manfaat": 4703,
      "omas": 4704,
      "Ġmiliar": 4705,
      "ĠWh": 4706,
      "ceae": 4707,
      "hailand": 4708,
      "ĠSir": 4709,
      "ĠDana": 4710,
      "Ġberkata": 4711,
      "Ġdiantaranya": 4712,
      "ultanan": 4713,
      "lahkan": 4714,
      "ilidae": 4715,
      "Ġsmartphone": 4716,
      "Ġdalamnya": 4717,
      "ĠSistem": 4718,
      "Ġditetapkan": 4719,
      "anye": 4720,
      "Ġpertanyaan": 4721,
      "ein": 4722,
      "Ġkot": 4723,
      "ĠBos": 4724,
      "ormal": 4725,
      "Ġkil": 4726,
      "BA": 4727,
      "Ġperdana": 4728,
      "Ġlaporan": 4729,
      "ĠTex": 4730,
      "Ġduduk": 4731,
      "okter": 4732,
      "ĠSebagian": 4733,
      "Ġpred": 4734,
      "Ġklas": 4735,
      "Ge": 4736,
      "nif": 4737,
      "ĠLatin": 4738,
      "Sebagai": 4739,
      "Ġlapangan": 4740,
      "ĠHong": 4741,
      "baikan": 4742,
      "Ġsituasi": 4743,
      "ĠMiss": 4744,
      "jar": 4745,
      "....": 4746,
      "Ġmasjid": 4747,
      "Ġmendorong": 4748,
      "ohan": 4749,
      "ĠHindia": 4750,
      "Ġitulah": 4751,
      "Ġmengunjungi": 4752,
      "put": 4753,
      "akh": 4754,
      "ĠNet": 4755,
      "Karier": 4756,
      "Ġjarang": 4757,
      "ette": 4758,
      "imbangkan": 4759,
      "ĠPerjanjian": 4760,
      "Ġdijual": 4761,
      "ĠSain": 4762,
      "bul": 4763,
      "Ġmendaftar": 4764,
      "ĠLin": 4765,
      "ĠTionghoa": 4766,
      "sion": 4767,
      "imbulkan": 4768,
      "ĠĠĠ": 4769,
      "ademi": 4770,
      "Ġwajib": 4771,
      "ĠVer": 4772,
      "Ġsetempat": 4773,
      "nal": 4774,
      "ĠLove": 4775,
      "Ġmanajemen": 4776,
      "ĠQu": 4777,
      "Ġkisah": 4778,
      "rian": 4779,
      "Ġdokumen": 4780,
      "ahasia": 4781,
      ";\"": 4782,
      "ĠRT": 4783,
      "Ġmengingat": 4784,
      "Ġhuruf": 4785,
      "Ġkontrak": 4786,
      "ĠPaus": 4787,
      "ĠPantai": 4788,
      "ampi": 4789,
      "oi": 4790,
      "Ġoksi": 4791,
      "Ġdidapat": 4792,
      "aliforn": 4793,
      "Ġpintu": 4794,
      "Ġkopi": 4795,
      "egan": 4796,
      "kom": 4797,
      "rich": 4798,
      "Ġsepen": 4799,
      "ujuk": 4800,
      "Ġsaluran": 4801,
      "indahkan": 4802,
      "ĠSm": 4803,
      "Ġketinggian": 4804,
      "hancurkan": 4805,
      "OR": 4806,
      "Ġsat": 4807,
      "Ġasam": 4808,
      "estor": 4809,
      "Ġ(\"": 4810,
      "estan": 4811,
      "Ġberbicara": 4812,
      "Gereja": 4813,
      "des": 4814,
      "obi": 4815,
      "ĠSamp": 4816,
      "Pr": 4817,
      "cel": 4818,
      "Ġmemakan": 4819,
      "ĠIV": 4820,
      "ĠSE": 4821,
      "gunaan": 4822,
      "Ġnantinya": 4823,
      "Ð°": 4824,
      "okrat": 4825,
      "Ġdu": 4826,
      "elanja": 4827,
      "Ġkre": 4828,
      "gresi": 4829,
      "olongan": 4830,
      "formation": 4831,
      "orro": 4832,
      "wai": 4833,
      "Ġkalinya": 4834,
      "entitas": 4835,
      "ĠLINE": 4836,
      "PK": 4837,
      "ungkapkan": 4838,
      "ĠNg": 4839,
      "ĠTeknik": 4840,
      "efektur": 4841,
      "inter": 4842,
      "Ġpakaian": 4843,
      "po": 4844,
      "Ġbalapan": 4845,
      "Kelahiran": 4846,
      "Ġpemeran": 4847,
      "Ġbern": 4848,
      "alifornia": 4849,
      "Ġpetani": 4850,
      "Ġbermanfaat": 4851,
      "ĠBatu": 4852,
      "ĠSuku": 4853,
      "ĠAkan": 4854,
      "Ġdibawah": 4855,
      "Saya": 4856,
      "Ġcender": 4857,
      "inding": 4858,
      "etan": 4859,
      "alin": 4860,
      "Ġkursi": 4861,
      "ĠPop": 4862,
      "ology": 4863,
      "Ġinilah": 4864,
      "ĠInter": 4865,
      "Ġkanan": 4866,
      "anggu": 4867,
      "asir": 4868,
      "Ġyg": 4869,
      "sir": 4870,
      "andatangan": 4871,
      "Ġsingkat": 4872,
      "ĠPutri": 4873,
      "Ġsektor": 4874,
      "ĠBangsa": 4875,
      "Ġmenguntungkan": 4876,
      "acu": 4877,
      "anji": 4878,
      "Ġayam": 4879,
      "isian": 4880,
      "Ġdilengkapi": 4881,
      "ouse": 4882,
      "ietnam": 4883,
      "Ġujung": 4884,
      "ontr": 4885,
      "anggil": 4886,
      "dapatan": 4887,
      "CA": 4888,
      "ole": 4889,
      "Ġkapan": 4890,
      "Ġmelewati": 4891,
      "PD": 4892,
      "aliknya": 4893,
      "ekar": 4894,
      "Ġkepad": 4895,
      "ics": 4896,
      "ĊĊĠ": 4897,
      "ates": 4898,
      "alo": 4899,
      "umni": 4900,
      "Ġplay": 4901,
      "Ġben": 4902,
      "ĠHo": 4903,
      "tian": 4904,
      "Ġkaryawan": 4905,
      "Ġcenderung": 4906,
      "Ġponsel": 4907,
      "Ġspons": 4908,
      "Ġberpikir": 4909,
      "Ġmengadakan": 4910,
      "ĠJangan": 4911,
      "pon": 4912,
      "Ġpabrik": 4913,
      "angkit": 4914,
      "kh": 4915,
      "ĠSid": 4916,
      "ĠNur": 4917,
      "orial": 4918,
      "zim": 4919,
      "ometer": 4920,
      "etail": 4921,
      "entris": 4922,
      "ĠKab": 4923,
      "arankan": 4924,
      "Ġpengunjung": 4925,
      "ground": 4926,
      "ĠKali": 4927,
      "ĠThailand": 4928,
      "osh": 4929,
      "daknya": 4930,
      "ataran": 4931,
      "ĠGir": 4932,
      "ert": 4933,
      "awaran": 4934,
      "Ġdistrik": 4935,
      "operasikan": 4936,
      "bia": 4937,
      "alatan": 4938,
      "ilaku": 4939,
      "Ġpenampilan": 4940,
      "Ġkand": 4941,
      "ĠBant": 4942,
      "ĠGeorge": 4943,
      "assar": 4944,
      "Ġtertarik": 4945,
      "xt": 4946,
      "ariwisata": 4947,
      "angguan": 4948,
      "unyi": 4949,
      "Ã¨": 4950,
      "ĠMisalnya": 4951,
      "Ġpendapatan": 4952,
      "Ġmenu": 4953,
      "Ġkecuali": 4954,
      "Dari": 4955,
      "Ġalternatif": 4956,
      "Ġdisebutkan": 4957,
      "minal": 4958,
      "Ġtips": 4959,
      "uransi": 4960,
      "IP": 4961,
      "Ġlayak": 4962,
      "isnis": 4963,
      "ĠResmi": 4964,
      "unisip": 4965,
      "itudo": 4966,
      "Kehidupan": 4967,
      "ĠSocorro": 4968,
      "Ġbakar": 4969,
      "Penghargaan": 4970,
      "ebasan": 4971,
      "ĠLo": 4972,
      "elasan": 4973,
      "Ġruangan": 4974,
      "ĠVir": 4975,
      "tagram": 4976,
      "tainment": 4977,
      "yangan": 4978,
      "Ġpecahan": 4979,
      "ĠFir": 4980,
      "Ġpendukung": 4981,
      "Ġsebaga": 4982,
      "lop": 4983,
      "ĠSemarang": 4984,
      "ĠPos": 4985,
      "ĠTerpercaya": 4986,
      "Ġoption": 4987,
      "ĠJalur": 4988,
      "ĠTokyo": 4989,
      "Ġgraf": 4990,
      "ĠProt": 4991,
      "ĠTor": 4992,
      "utuh": 4993,
      "film": 4994,
      "arif": 4995,
      "ĠLINEAR": 4996,
      "enjata": 4997,
      "Ġsebaik": 4998,
      "ĠMont": 4999,
      "ĠCalifornia": 5000,
      "Ġhijau": 5001,
      "Ġdingin": 5002,
      "ĠWest": 5003,
      "Ġpay": 5004,
      "Ġkepercaya": 5005,
      "endak": 5006,
      "unty": 5007,
      "Ġgug": 5008,
      "aleri": 5009,
      "Ġsuhu": 5010,
      "Ø§": 5011,
      "Ketika": 5012,
      "ĠDel": 5013,
      "Ġmenambah": 5014,
      "UN": 5015,
      "Ġkompleks": 5016,
      "%.": 5017,
      "ĠKarang": 5018,
      "jak": 5019,
      "Ġterbagi": 5020,
      "Ġdaging": 5021,
      "omi": 5022,
      "ĠNag": 5023,
      "Ġkanker": 5024,
      "Ġpromosi": 5025,
      "atural": 5026,
      "ĠMichael": 5027,
      "amad": 5028,
      "ubung": 5029,
      "Ġund": 5030,
      "omer": 5031,
      "str": 5032,
      "Ġaksi": 5033,
      "alem": 5034,
      "onis": 5035,
      ");": 5036,
      "ĠLaw": 5037,
      "oks": 5038,
      "Ġtarget": 5039,
      "ĠMedia": 5040,
      "Ġpaket": 5041,
      "ingatan": 5042,
      "ĠHon": 5043,
      "ĠDarat": 5044,
      "akta": 5045,
      "Ġdikirim": 5046,
      "ĠMasa": 5047,
      "Ġdial": 5048,
      "ĠDivisi": 5049,
      "à¸": 5050,
      "ĠFC": 5051,
      "ĠRob": 5052,
      "imbangan": 5053,
      "Ġkredit": 5054,
      "uss": 5055,
      "ebaran": 5056,
      "Ġang": 5057,
      "ĠGames": 5058,
      "Ġmenghabiskan": 5059,
      "Nya": 5060,
      "ridge": 5061,
      "onsumsi": 5062,
      "ure": 5063,
      "alas": 5064,
      "iae": 5065,
      "dial": 5066,
      "Ġbertanggung": 5067,
      "ght": 5068,
      "ĠKita": 5069,
      "juangan": 5070,
      "Ġkasih": 5071,
      "din": 5072,
      "ĠGi": 5073,
      "Ġterbuat": 5074,
      "seb": 5075,
      "ĠBest": 5076,
      "ster": 5077,
      "Ġdihasilkan": 5078,
      "ĠDinasti": 5079,
      "elap": 5080,
      "ĠPS": 5081,
      "Ġdiam": 5082,
      "dal": 5083,
      "Ã¤": 5084,
      "Ġrelatif": 5085,
      "udut": 5086,
      "Ġedisi": 5087,
      "unisipalitas": 5088,
      "ejo": 5089,
      "ĠDon": 5090,
      "olar": 5091,
      "Ġdiselenggarakan": 5092,
      "ĠVideo": 5093,
      "Karena": 5094,
      "Ġmengatasi": 5095,
      "Ġwakil": 5096,
      "romosi": 5097,
      "Ġtekanan": 5098,
      "gerakan": 5099,
      "ustak": 5100,
      "Ġlulus": 5101,
      "Ġmenghindari": 5102,
      "Ġupacara": 5103,
      "BB": 5104,
      "ĠBang": 5105,
      "Ġbuatan": 5106,
      "Ġseng": 5107,
      "iku": 5108,
      "ĠGor": 5109,
      "ave": 5110,
      "imum": 5111,
      "ĠBag": 5112,
      "ilangkan": 5113,
      "ĠRas": 5114,
      "ĠMinor": 5115,
      "apus": 5116,
      "ĠFer": 5117,
      "Ġrambut": 5118,
      "ĠAustria": 5119,
      "ĠHotel": 5120,
      "MS": 5121,
      "alisme": 5122,
      "Ġperjanjian": 5123,
      "ado": 5124,
      "ĠSouth": 5125,
      "ĠVietnam": 5126,
      "Ġmemegang": 5127,
      "Ġsimbol": 5128,
      "ĠJack": 5129,
      "uy": 5130,
      "ĠSl": 5131,
      "Ġpemula": 5132,
      "turut": 5133,
      "Ġfile": 5134,
      "Ġnaskah": 5135,
      "Ġcahaya": 5136,
      "Ġkepercayaan": 5137,
      "Mem": 5138,
      "ujukan": 5139,
      "nifikan": 5140,
      "edali": 5141,
      "ĠBus": 5142,
      "Ġmencetak": 5143,
      "eet": 5144,
      "Ġsebagainya": 5145,
      "ĠCharles": 5146,
      "ĠGold": 5147,
      "angsaan": 5148,
      "Ġkunci": 5149,
      "ĠMusim": 5150,
      "Ġhotel": 5151,
      "ĠPlat": 5152,
      "okok": 5153,
      "ewas": 5154,
      "ble": 5155,
      "Ġtiap": 5156,
      "ĠPhilipp": 5157,
      "Ġsim": 5158,
      "els": 5159,
      "ĠFIFA": 5160,
      "ĠProduk": 5161,
      "ĠBab": 5162,
      "ovasi": 5163,
      "Ġsepenuhnya": 5164,
      "taran": 5165,
      "ĠBah": 5166,
      "Ġindah": 5167,
      "Ġditaw": 5168,
      "rand": 5169,
      "Ġkemerdekaan": 5170,
      "uto": 5171,
      "ĠCan": 5172,
      "Ġkola": 5173,
      "ĠTop": 5174,
      "ĠVic": 5175,
      "ikator": 5176,
      "Ġmengaku": 5177,
      "ĠEkonomi": 5178,
      "imen": 5179,
      "Ġmagnitudo": 5180,
      "Ġkiri": 5181,
      "ĠÂ»": 5182,
      "nan": 5183,
      "Ġpenguasa": 5184,
      "ĠDPRD": 5185,
      "ĠRah": 5186,
      "atnya": 5187,
      "Ġpemberont": 5188,
      "Ġdel": 5189,
      "Ġsambil": 5190,
      "Ġpuluh": 5191,
      "ĠEntertainment": 5192,
      "ier": 5193,
      "ĠAstronom": 5194,
      "ĠHak": 5195,
      "ĠYa": 5196,
      "Ġng": 5197,
      "olos": 5198,
      "mada": 5199,
      "Ġrat": 5200,
      "vensi": 5201,
      "ĠCl": 5202,
      "Ġmemerlukan": 5203,
      "ĠAkhir": 5204,
      "Ġdampak": 5205,
      "zin": 5206,
      "Ġmarket": 5207,
      "ture": 5208,
      "ĠDay": 5209,
      "ĠUE": 5210,
      "Ġmencatat": 5211,
      "epend": 5212,
      "IM": 5213,
      "Ġsarana": 5214,
      "Ġpelaks": 5215,
      "set": 5216,
      "ollo": 5217,
      "ejala": 5218,
      "PT": 5219,
      "ĠAnt": 5220,
      "ukkan": 5221,
      "omen": 5222,
      "ĠBisa": 5223,
      "ĠBuddha": 5224,
      "Ġsingel": 5225,
      "Hal": 5226,
      "ĠForm": 5227,
      "elamat": 5228,
      "Ġdelapan": 5229,
      "osk": 5230,
      "ĠSec": 5231,
      "ifera": 5232,
      "ĠMalang": 5233,
      "Ġditayangkan": 5234,
      "ĠOlahraga": 5235,
      "ĠWi": 5236,
      "Ġmengin": 5237,
      "Ġmenyebutkan": 5238,
      "ulitan": 5239,
      "Ġsetidaknya": 5240,
      "cher": 5241,
      "Ġmed": 5242,
      "inus": 5243,
      "wira": 5244,
      "Ġkej": 5245,
      "ilus": 5246,
      "oul": 5247,
      "antren": 5248,
      "Ġberkualitas": 5249,
      "Ġmenimbulkan": 5250,
      "ĠRoy": 5251,
      "sitektur": 5252,
      "ĠBak": 5253,
      "Ġterm": 5254,
      "uliah": 5255,
      "ondok": 5256,
      "ĠKampung": 5257,
      "Ġvokal": 5258,
      "ĠSus": 5259,
      "Ġdibintangi": 5260,
      "eku": 5261,
      "Ġkampung": 5262,
      "ĠNi": 5263,
      "Ġsignifikan": 5264,
      "ugian": 5265,
      "ĠKantor": 5266,
      "Ġkesalahan": 5267,
      "ĠJumlah": 5268,
      "ustru": 5269,
      "Ġbertaruh": 5270,
      "ĠBas": 5271,
      "ĠKejuaraan": 5272,
      "ĠBogor": 5273,
      "indungi": 5274,
      "wood": 5275,
      "ĠLebih": 5276,
      "Ġmenyenangkan": 5277,
      "ĠBl": 5278,
      "ĠBh": 5279,
      "Ġmemproduksi": 5280,
      "ĠHung": 5281,
      "ĠContoh": 5282,
      "andangan": 5283,
      "ĠBill": 5284,
      "Nama": 5285,
      "Ġmengapa": 5286,
      "ĠOs": 5287,
      "ĠLalu": 5288,
      "ĠBrasil": 5289,
      "ematika": 5290,
      "Sebelum": 5291,
      "Ġcm": 5292,
      "Ġpagi": 5293,
      "ĠSis": 5294,
      "identifikasi": 5295,
      "arnya": 5296,
      "Ġmaksimal": 5297,
      "embak": 5298,
      "gresif": 5299,
      "ustakaan": 5300,
      "ĠHanya": 5301,
      "eliti": 5302,
      "Ġdisk": 5303,
      "Pembentukan": 5304,
      "Ġlaba": 5305,
      "ĠJuga": 5306,
      "ĠBagi": 5307,
      "Ġlebar": 5308,
      "utip": 5309,
      "Ġserupa": 5310,
      "lihat": 5311,
      "Ġdisediakan": 5312,
      "ĠFeder": 5313,
      "Ġbeli": 5314,
      "Ġdiatas": 5315,
      "Perusahaan": 5316,
      "Ġmembahas": 5317,
      "ews": 5318,
      "eliling": 5319,
      "Ġwalaupun": 5320,
      "Ġdibawa": 5321,
      "Ġberharap": 5322,
      "Ġsyarat": 5323,
      "utif": 5324,
      "Ġmajalah": 5325,
      "lindungan": 5326,
      "Ġgigi": 5327,
      "Ġmaju": 5328,
      "ĠChampi": 5329,
      "Ġpenyebab": 5330,
      "Ġrekan": 5331,
      "Sel": 5332,
      "Ġsolusi": 5333,
      "Ġdll": 5334,
      "ĠPasar": 5335,
      "tah": 5336,
      "Ġmenutup": 5337,
      "Ġketua": 5338,
      "ebak": 5339,
      "Ġemail": 5340,
      "Ġtamu": 5341,
      "ĠKarya": 5342,
      "Mas": 5343,
      "AH": 5344,
      "Ġberjumlah": 5345,
      "ĠMakassar": 5346,
      "ray": 5347,
      "ĠCent": 5348,
      "amkan": 5349,
      "entuan": 5350,
      "ĠAgama": 5351,
      "ĠSak": 5352,
      "imasi": 5353,
      "Ġsetengah": 5354,
      "Ġdiperkirakan": 5355,
      "ĠTeknologi": 5356,
      "Ġpedagang": 5357,
      "Ġisi": 5358,
      "Ġjual": 5359,
      "Ġurutan": 5360,
      "esuaikan": 5361,
      "ĠInt": 5362,
      "ĠPart": 5363,
      "ĠBol": 5364,
      "ĠHasil": 5365,
      "Ġmenunggu": 5366,
      "raja": 5367,
      "âĢĿ.": 5368,
      "entrisitas": 5369,
      "ilu": 5370,
      "ĠAstronomical": 5371,
      "ĠUl": 5372,
      "Ġdist": 5373,
      "ophy": 5374,
      "Ġmerujuk": 5375,
      "Ġtewas": 5376,
      "ĠLou": 5377,
      "Ġlar": 5378,
      "Salah": 5379,
      "text": 5380,
      "OL": 5381,
      "sinya": 5382,
      "Ġ(;": 5383,
      "ĠFar": 5384,
      "rani": 5385,
      "Ġtaman": 5386,
      "PN": 5387,
      "ism": 5388,
      "Ġmayoritas": 5389,
      "Ġlevel": 5390,
      "Ġpejabat": 5391,
      "ĠFin": 5392,
      "alai": 5393,
      "ĠDistrik": 5394,
      "ĠPic": 5395,
      "Bi": 5396,
      "Ġswasta": 5397,
      "iyah": 5398,
      "aina": 5399,
      "ĠApa": 5400,
      "rancang": 5401,
      "Ġmengisi": 5402,
      "vestasi": 5403,
      "Ġkenda": 5404,
      "angani": 5405,
      "Ġditawarkan": 5406,
      "Ġaktris": 5407,
      "udus": 5408,
      "Ġvirus": 5409,
      "iner": 5410,
      "Ġdikarenakan": 5411,
      "ĠBook": 5412,
      "Ġlink": 5413,
      "Ġmenjalani": 5414,
      "pr": 5415,
      "Ġpajak": 5416,
      "UD": 5417,
      "ĠLib": 5418,
      "Ġpembentukan": 5419,
      "Ġpimpinan": 5420,
      "itungan": 5421,
      "Ġmelaksanakan": 5422,
      "ĠKeuskupan": 5423,
      "eritakan": 5424,
      "avorit": 5425,
      "Ġrekaman": 5426,
      "Ġdownload": 5427,
      "Ġdirancang": 5428,
      "dayaan": 5429,
      "yawa": 5430,
      "ĠVen": 5431,
      "Ġterpisah": 5432,
      "urit": 5433,
      "Ġmurid": 5434,
      "hire": 5435,
      "EM": 5436,
      "oot": 5437,
      "Pers": 5438,
      "right": 5439,
      "Ġmutlaknya": 5440,
      "Ġpetu": 5441,
      "Ð¾": 5442,
      "ĠHindu": 5443,
      "awal": 5444,
      "Ġmenguasai": 5445,
      "ahlawan": 5446,
      "ĠPertempuran": 5447,
      "Ġadministratif": 5448,
      "Ġkab": 5449,
      "asama": 5450,
      "ĠApollo": 5451,
      "ukis": 5452,
      ".âĢĿ": 5453,
      "ANG": 5454,
      "Ġdiperoleh": 5455,
      "angit": 5456,
      "osok": 5457,
      "Ġprakt": 5458,
      "ĠMedan": 5459,
      "uktikan": 5460,
      "ĠDepartemen": 5461,
      "onel": 5462,
      "angkau": 5463,
      "Bac": 5464,
      "ĠOt": 5465,
      "ugi": 5466,
      "irik": 5467,
      "Ġayat": 5468,
      "ele": 5469,
      "entingan": 5470,
      "ĠThomas": 5471,
      "Ġpermintaan": 5472,
      "itual": 5473,
      "efisi": 5474,
      "Ġseksual": 5475,
      "ning": 5476,
      "erbal": 5477,
      "ahi": 5478,
      "indahan": 5479,
      "ĠJon": 5480,
      "kes": 5481,
      "Ġsastra": 5482,
      "Ġlantai": 5483,
      "ĠLeg": 5484,
      "Ġpenggemar": 5485,
      "vice": 5486,
      "Ġgangguan": 5487,
      "ĠKomisi": 5488,
      "tory": 5489,
      "ario": 5490,
      "Ġyakin": 5491,
      "Ġkesulitan": 5492,
      "ujuan": 5493,
      "ĠObat": 5494,
      "ĠRichard": 5495,
      "ukiman": 5496,
      "Ġnanti": 5497,
      "Ġpasien": 5498,
      "Keb": 5499,
      "Ġpolisi": 5500,
      "ept": 5501,
      "ukl": 5502,
      "ters": 5503,
      "ĠApp": 5504,
      "ospong": 5505,
      "ĠArg": 5506,
      "Ġpandangan": 5507,
      "yur": 5508,
      "oci": 5509,
      "Ġglobal": 5510,
      "beda": 5511,
      "nel": 5512,
      "Ġdipercaya": 5513,
      "otong": 5514,
      "indak": 5515,
      "gia": 5516,
      "ĠOrganisasi": 5517,
      "lima": 5518,
      "Sumber": 5519,
      "ewi": 5520,
      "Ġbukanlah": 5521,
      "Ġkapasitas": 5522,
      "Ġkelah": 5523,
      "Ġprot": 5524,
      "Ġperawatan": 5525,
      "uhkan": 5526,
      "Ġdiharapkan": 5527,
      "yon": 5528,
      "andatangani": 5529,
      "Si": 5530,
      "Ġkelahiran": 5531,
      "Ġit": 5532,
      "opsi": 5533,
      "Angg": 5534,
      "ĠFr": 5535,
      "rack": 5536,
      "ibur": 5537,
      "dipati": 5538,
      "mur": 5539,
      "Ġpulang": 5540,
      "Ġkomedi": 5541,
      "Ġdewa": 5542,
      "ĠMoh": 5543,
      "Sh": 5544,
      "Stasiun": 5545,
      "ĠTogel": 5546,
      "IK": 5547,
      "okrasi": 5548,
      "ĠPembangunan": 5549,
      "Ġpu": 5550,
      "ĠInformasi": 5551,
      "Ġdigantikan": 5552,
      "Ġditentukan": 5553,
      "obet": 5554,
      "Ġq": 5555,
      "Ġdif": 5556,
      "Ġkeinginan": 5557,
      "zz": 5558,
      "Ġmelindungi": 5559,
      "ĠTab": 5560,
      "Ġaset": 5561,
      "Ġmengakibatkan": 5562,
      "Dia": 5563,
      "awatir": 5564,
      "Ġperalatan": 5565,
      "Ġadik": 5566,
      "elih": 5567,
      "arto": 5568,
      "ebon": 5569,
      "Ġrow": 5570,
      "elakaan": 5571,
      "ege": 5572,
      "Se": 5573,
      "Ġlatar": 5574,
      "ĠJam": 5575,
      "Ġskor": 5576,
      "ever": 5577,
      "ĠAdmin": 5578,
      "empa": 5579,
      "ikal": 5580,
      "ution": 5581,
      "Ġsemacam": 5582,
      "Amer": 5583,
      "romosikan": 5584,
      "Ġmm": 5585,
      "ach": 5586,
      "purna": 5587,
      "Ġtun": 5588,
      "ĠRuang": 5589,
      "eper": 5590,
      "Ġpengan": 5591,
      "Ġtampilan": 5592,
      "ombol": 5593,
      "Filmografi": 5594,
      "so": 5595,
      "ĠSumber": 5596,
      "ĠAsteroid": 5597,
      "sk": 5598,
      "ĠWindows": 5599,
      "tal": 5600,
      "Ġbersih": 5601,
      "ago": 5602,
      "Ġmengumpulkan": 5603,
      "ube": 5604,
      "Ġmenerapkan": 5605,
      "Ġjustru": 5606,
      "sal": 5607,
      "Ġmendengar": 5608,
      "nu": 5609,
      "ĠSong": 5610,
      "endera": 5611,
      "adir": 5612,
      "ĠTrade": 5613,
      "ĠLive": 5614,
      "Ġminuman": 5615,
      "Ġaspek": 5616,
      "uary": 5617,
      "ĠIran": 5618,
      "Ġuniversitas": 5619,
      "ĠArch": 5620,
      "edar": 5621,
      "SI": 5622,
      "ĠKitab": 5623,
      "ĠDirektur": 5624,
      "Ġkul": 5625,
      "ĠSuci": 5626,
      "ĠChan": 5627,
      "win": 5628,
      "Ġmerasakan": 5629,
      "ensus": 5630,
      "Ġibunya": 5631,
      "Ġdidukung": 5632,
      "baiki": 5633,
      "Ġterbukti": 5634,
      "ĠCina": 5635,
      "ĠHarga": 5636,
      "Mer": 5637,
      "ordial": 5638,
      "itch": 5639,
      "Ġmengungkapkan": 5640,
      "ĠIk": 5641,
      "Ġrowspan": 5642,
      "Ġdimaksud": 5643,
      "Ġstudio": 5644,
      "ĠFlor": 5645,
      "onj": 5646,
      "Ġbersamaan": 5647,
      "ĠAran": 5648,
      "ĠPorifera": 5649,
      "Ġkerugian": 5650,
      "ĠChrist": 5651,
      "ĠId": 5652,
      "ĠReg": 5653,
      "arusnya": 5654,
      "ĠTaiwan": 5655,
      "Situs": 5656,
      "Ġkin": 5657,
      "Ġdiubah": 5658,
      "ambi": 5659,
      "ĠPeter": 5660,
      "Kematian": 5661,
      "III": 5662,
      "Ġprimordial": 5663,
      "ĠMasyarakat": 5664,
      "ano": 5665,
      "uduki": 5666,
      "Ġperbatasan": 5667,
      "PA": 5668,
      "Ġ;": 5669,
      "ĠPD": 5670,
      "Ġberpen": 5671,
      "Ġtersebar": 5672,
      "Ġdisini": 5673,
      "Ġtelepon": 5674,
      "Pendidikan": 5675,
      "kata": 5676,
      "Ġganda": 5677,
      "esta": 5678,
      "Ġsudut": 5679,
      "Ġterjad": 5680,
      "Ġlintas": 5681,
      "ormatan": 5682,
      "bilitas": 5683,
      "sian": 5684,
      "ĠUN": 5685,
      "ĠLampung": 5686,
      "iriman": 5687,
      "Ġko": 5688,
      "ebunan": 5689,
      "Ġhiburan": 5690,
      "osen": 5691,
      "Ġmenekan": 5692,
      "ven": 5693,
      "Ġkomponen": 5694,
      "ĠSanto": 5695,
      "ĠFri": 5696,
      "Ġmassa": 5697,
      "Kami": 5698,
      "ĠAplikasi": 5699,
      "Ġne": 5700,
      "Ġlogam": 5701,
      "encanakan": 5702,
      "ĠHigh": 5703,
      "Ġmelainkan": 5704,
      "Ġtransportasi": 5705,
      "Ġalih": 5706,
      "ange": 5707,
      "ĠCi": 5708,
      "Tim": 5709,
      "ĠTip": 5710,
      "Secara": 5711,
      "bungan": 5712,
      "atistik": 5713,
      "istrasi": 5714,
      "Ġmelakukannya": 5715,
      "ĠWIB": 5716,
      "Ġagak": 5717,
      "Ġindonesia": 5718,
      "ormasi": 5719,
      "ĠChampions": 5720,
      "unis": 5721,
      "ĠPemerintahan": 5722,
      "ĠAhmad": 5723,
      "ilia": 5724,
      "Ġent": 5725,
      "ĠAcadem": 5726,
      "Ġkitab": 5727,
      "Ġteb": 5728,
      "ĠKing": 5729,
      "ĠJuara": 5730,
      "ĠBintang": 5731,
      "ĠSwedia": 5732,
      "ĠYupiter": 5733,
      "Ġpelatihan": 5734,
      "asasti": 5735,
      "aus": 5736,
      "ejar": 5737,
      "Ġsebagaimana": 5738,
      "Ġtiket": 5739,
      "artisipasi": 5740,
      "ĠBek": 5741,
      "date": 5742,
      "Ġmengus": 5743,
      "Ġpros": 5744,
      "ĠNorth": 5745,
      "PI": 5746,
      "ĠTentara": 5747,
      "Ġistana": 5748,
      "Ġdiluncurkan": 5749,
      "ĠKek": 5750,
      "ĠUndang": 5751,
      "ĠTour": 5752,
      "ĠFacebook": 5753,
      "yatakan": 5754,
      "Ġnormal": 5755,
      "ĠAkademi": 5756,
      "Ġbertugas": 5757,
      "Ġanalisis": 5758,
      "ĠRam": 5759,
      "nas": 5760,
      "utaan": 5761,
      "ĠSeni": 5762,
      "board": 5763,
      "ĠĠĠĠĠĠĠĠĠĠĠĠĠĠĠĠ": 5764,
      "Ġmenetapkan": 5765,
      "olf": 5766,
      "isimal": 5767,
      "ĠLos": 5768,
      "Ġgitar": 5769,
      "ĠUskup": 5770,
      "Ġperintah": 5771,
      "Ġplanetisimal": 5772,
      "ĠTeluk": 5773,
      "ĠEksentrisitas": 5774,
      "coin": 5775,
      "Ġmengenal": 5776,
      "ĠLay": 5777,
      "imbang": 5778,
      "Ġmempengaruhi": 5779,
      "ĠSejarah": 5780,
      "ogo": 5781,
      "Ġkejadian": 5782,
      "ĠNews": 5783,
      "andu": 5784,
      "untut": 5785,
      "ĠCompany": 5786,
      "jer": 5787,
      "Ġhist": 5788,
      "ospongiae": 5789,
      "aktif": 5790,
      "utin": 5791,
      "Anggota": 5792,
      "Ġsekitarnya": 5793,
      "Ġjantung": 5794,
      "Ġsil": 5795,
      "ualifikasi": 5796,
      "ĠIrlandia": 5797,
      "Ġdarat": 5798,
      "Ġrup": 5799,
      "arch": 5800,
      "Ġkamera": 5801,
      "ords": 5802,
      "Ġajang": 5803,
      "Ġco": 5804,
      "ĠPon": 5805,
      "ĠBany": 5806,
      "Ġmenempatkan": 5807,
      "ĠKonf": 5808,
      "Ġsab": 5809,
      "Ġpertunjukan": 5810,
      "ekor": 5811,
      "Ġkhawatir": 5812,
      "Ġdusun": 5813,
      "umbu": 5814,
      "Ġberguna": 5815,
      "Lagu": 5816,
      "Å«": 5817,
      "lav": 5818,
      "Ġmenyadari": 5819,
      "urasi": 5820,
      "ĠLuc": 5821,
      "Ġmenteri": 5822,
      "Ġperaturan": 5823,
      "Ġfin": 5824,
      "Ġpsik": 5825,
      "TM": 5826,
      "rick": 5827,
      "Ġkerj": 5828,
      "ĠUkr": 5829,
      "Ġbeserta": 5830,
      "Ġsutradara": 5831,
      "injaman": 5832,
      "Ġmit": 5833,
      "ĠĊĠĊĠĊ": 5834,
      "Ġbalik": 5835,
      "Ġcampuran": 5836,
      "ajar": 5837,
      "ĠVan": 5838,
      "Ġsuper": 5839,
      "ĠLabor": 5840,
      "Ġbakal": 5841,
      "Ġmenyimpan": 5842,
      "ering": 5843,
      "ĠUEFA": 5844,
      "Ġkilometer": 5845,
      "ĠKy": 5846,
      "Ph": 5847,
      "enaran": 5848,
      "bobet": 5849,
      "ĠCasino": 5850,
      "Ġciri": 5851,
      "Ġpub": 5852,
      "Ġterkadang": 5853,
      "rol": 5854,
      "ĠAbu": 5855,
      "tung": 5856,
      "Ġsebaiknya": 5857,
      "adai": 5858,
      "ĠIndustri": 5859,
      "Man": 5860,
      "Ġberbagi": 5861,
      "Ġkeberadaan": 5862,
      "ĠLu": 5863,
      "ĠOfficial": 5864,
      "agia": 5865,
      "UM": 5866,
      "Ġmengund": 5867,
      "Ġmiliki": 5868,
      "amer": 5869,
      "Sekolah": 5870,
      "Ġsenang": 5871,
      "ĠTroya": 5872,
      "Ġbanyaknya": 5873,
      "agar": 5874,
      "Ġpengusaha": 5875,
      "asia": 5876,
      "van": 5877,
      "Ġkering": 5878,
      "ĠDu": 5879,
      "ĠWah": 5880,
      "Ġkeju": 5881,
      "ĠCal": 5882,
      "adwal": 5883,
      "Ġkepentingan": 5884,
      "Ġnegatif": 5885,
      "nes": 5886,
      "ĠFrank": 5887,
      "Bacaan": 5888,
      "Ġdian": 5889,
      "Ġklik": 5890,
      "etakan": 5891,
      "Kec": 5892,
      "ĠRD": 5893,
      "UR": 5894,
      "Ġsipil": 5895,
      "Ġtersen": 5896,
      "binasi": 5897,
      "col": 5898,
      "ĠHel": 5899,
      "edak": 5900,
      "itter": 5901,
      "ĠSurat": 5902,
      "Ġremaja": 5903,
      "ÙĦ": 5904,
      "ĠNik": 5905,
      "Ġtakut": 5906,
      "ersial": 5907,
      "arawan": 5908,
      "ĠPurw": 5909,
      "ĠKristus": 5910,
      "ĠPerk": 5911,
      "ĠMax": 5912,
      "ĠPe": 5913,
      "adalah": 5914,
      "Ġmusuh": 5915,
      "ĠApakah": 5916,
      "Ġkuda": 5917,
      "Ġni": 5918,
      "ĠCamp": 5919,
      "ĠSekretaris": 5920,
      "ĠGreen": 5921,
      "madi": 5922,
      "Ġadministrasi": 5923,
      "ĠSci": 5924,
      "Ġworld": 5925,
      "Ġpp": 5926,
      "ject": 5927,
      "Ġpendapat": 5928,
      "Ġarti": 5929,
      "Ġbinary": 5930,
      "Ġketah": 5931,
      "ĠRiau": 5932,
      "eme": 5933,
      "Ðµ": 5934,
      "aga": 5935,
      "Ġterjadinya": 5936,
      "Kabupaten": 5937,
      "ĠJapan": 5938,
      "ĠPC": 5939,
      "usul": 5940,
      "jem": 5941,
      "Grup": 5942,
      "Ġbertujuan": 5943,
      "ĠMain": 5944,
      "Ġsens": 5945,
      "atedral": 5946,
      "cus": 5947,
      "ĠTiga": 5948,
      "Ġkebu": 5949,
      "Ġpengobatan": 5950,
      "Ġperilaku": 5951,
      "ĠFre": 5952,
      "ektar": 5953,
      "elian": 5954,
      "IA": 5955,
      "Ġpil": 5956,
      "entina": 5957,
      "ĠCr": 5958,
      "omy": 5959,
      "Ġraya": 5960,
      "ĠKesultanan": 5961,
      "Ġmahal": 5962,
      "grasi": 5963,
      "ĠID": 5964,
      "eal": 5965,
      "ĠSej": 5966,
      "Ġberpartisipasi": 5967,
      "ajuan": 5968,
      "Ġberapa": 5969,
      "ggak": 5970,
      "center": 5971,
      "peng": 5972,
      "ats": 5973,
      "lien": 5974,
      "Ġkeker": 5975,
      "Ġsih": 5976,
      "eck": 5977,
      "tein": 5978,
      "Ġgadis": 5979,
      "Ġguna": 5980,
      "ĠLama": 5981,
      "Ġir": 5982,
      "kol": 5983,
      "Ġpenonton": 5984,
      "itcoin": 5985,
      "Ġmekan": 5986,
      "rajurit": 5987,
      "Ġsuami": 5988,
      "lian": 5989,
      "urunan": 5990,
      "ukar": 5991,
      "EL": 5992,
      "Ġetnis": 5993,
      "ĠKos": 5994,
      "impi": 5995,
      "Ġtuan": 5996,
      "ĠDasar": 5997,
      "Ġstrateg": 5998,
      "Ġajaran": 5999,
      "imewa": 6000,
      "ĠĠĊ": 6001,
      "Ġlepas": 6002,
      "ĠOx": 6003,
      "len": 6004,
      "Ġkonflik": 6005,
      "elamatkan": 6006,
      "Ġulasan": 6007,
      "ĠBlu": 6008,
      "ection": 6009,
      "ĠUang": 6010,
      "Ġcasino": 6011,
      "ĠJi": 6012,
      "Ġseharusnya": 6013,
      "ason": 6014,
      "ucing": 6015,
      "Ġdipert": 6016,
      "ova": 6017,
      "Ġangkatan": 6018,
      "ĠĊĊĠĊ": 6019,
      "Ġsayap": 6020,
      "IV": 6021,
      "ĠEast": 6022,
      "Ġserius": 6023,
      "Ġmengakui": 6024,
      "imat": 6025,
      "ĠKalau": 6026,
      "ĠKelas": 6027,
      "Ġmalah": 6028,
      "ĠPutra": 6029,
      "ĠMerah": 6030,
      "Ġsempurna": 6031,
      "ĠAwal": 6032,
      "Ġsoal": 6033,
      "Ġpengelola": 6034,
      "ister": 6035,
      "Â°": 6036,
      "ĠDuk": 6037,
      "udahkan": 6038,
      "Ġtata": 6039,
      "Ġberukuran": 6040,
      "ium": 6041,
      "egawai": 6042,
      "ĠDani": 6043,
      "egiatan": 6044,
      "Ġreaksi": 6045,
      "etri": 6046,
      "ĠGirl": 6047,
      "ĠJul": 6048,
      "Ġmor": 6049,
      "Ġjurn": 6050,
      "Ġdinding": 6051,
      "Ġnasi": 6052,
      "Ġpal": 6053,
      "Banyak": 6054,
      "Ġprinsip": 6055,
      "ĠTri": 6056,
      "Ġkuliah": 6057,
      "ĠTexas": 6058,
      "osting": 6059,
      "ĠCirebon": 6060,
      "ors": 6061,
      "Ġlupa": 6062,
      "antangan": 6063,
      "Ġelektronik": 6064,
      "undur": 6065,
      "Ġdinyatakan": 6066,
      "Ġdidasarkan": 6067,
      "Ġdiumumkan": 6068,
      "ografis": 6069,
      "Ġwas": 6070,
      "ĠCounty": 6071,
      "trans": 6072,
      "Ġsepuluh": 6073,
      "ĠBrit": 6074,
      "antikan": 6075,
      "ĠDig": 6076,
      "ĠLiv": 6077,
      "ĠPrefektur": 6078,
      "Ġdiman": 6079,
      "Ġsinyal": 6080,
      "ancar": 6081,
      "ere": 6082,
      "KB": 6083,
      "Ġmenyamp": 6084,
      "CO": 6085,
      "Ð¸": 6086,
      "ĠPad": 6087,
      "ĠCO": 6088,
      "ĠLuk": 6089,
      "ucu": 6090,
      "Ġelemen": 6091,
      "pem": 6092,
      "sep": 6093,
      "Ġbat": 6094,
      "Dan": 6095,
      "Ġbertambah": 6096,
      "aknya": 6097,
      "ĠOne": 6098,
      "Ġklasik": 6099,
      "yanya": 6100,
      "Ġpraktik": 6101,
      "Ġsemangat": 6102,
      "ĠTs": 6103,
      "iger": 6104,
      "mail": 6105,
      "ĠAnton": 6106,
      "Ġmedali": 6107,
      "Ġpendaf": 6108,
      "ĠWat": 6109,
      "ream": 6110,
      "Ġvari": 6111,
      "background": 6112,
      "Ġrusak": 6113,
      "Ġkeda": 6114,
      "Ġpembalap": 6115,
      "Tahun": 6116,
      "siapkan": 6117,
      "agama": 6118,
      "Ġmembagi": 6119,
      "inop": 6120,
      "ĠUkraina": 6121,
      "Meskipun": 6122,
      "Ġmik": 6123,
      "ĠPasal": 6124,
      "Ġdasarnya": 6125,
      "grilus": 6126,
      "ead": 6127,
      "Ġpikiran": 6128,
      "amis": 6129,
      "Ġmenyukai": 6130,
      "Ġpendaftaran": 6131,
      "Ġpergerakan": 6132,
      "Ġjack": 6133,
      "sych": 6134,
      "Ġmenghubungkan": 6135,
      "Ġfavorit": 6136,
      "Ġpustaka": 6137,
      "Ġmengangkat": 6138,
      "ede": 6139,
      "Ġbesi": 6140,
      "Ġpingg": 6141,
      "akaran": 6142,
      "Ġmi": 6143,
      "eksiko": 6144,
      "entrasi": 6145,
      "ĠHungaria": 6146,
      "Ġkuning": 6147,
      "Ġdo": 6148,
      "Ġminimal": 6149,
      "alib": 6150,
      "Ġsir": 6151,
      "Th": 6152,
      "Orang": 6153,
      "jil": 6154,
      "Ġrump": 6155,
      "iasaan": 6156,
      "ĠBukit": 6157,
      "val": 6158,
      "udahan": 6159,
      "ĠPasi": 6160,
      "Ġreal": 6161,
      "ĠCy": 6162,
      "ekutif": 6163,
      "Ġ(,": 6164,
      "ubang": 6165,
      "irmasi": 6166,
      "Ġmask": 6167,
      "ankan": 6168,
      "otensi": 6169,
      "erson": 6170,
      "Ġharapan": 6171,
      "Ġpastinya": 6172,
      "ĠKamp": 6173,
      "yakini": 6174,
      "icu": 6175,
      "ĠAcademy": 6176,
      "cc": 6177,
      "Ġartis": 6178,
      "arga": 6179,
      "Ġpencarian": 6180,
      "rok": 6181,
      "gag": 6182,
      "off": 6183,
      "ĠStadion": 6184,
      "Ġturut": 6185,
      "ague": 6186,
      "utur": 6187,
      "Ġmenyampaikan": 6188,
      "gabungkan": 6189,
      "ĠSaint": 6190,
      "Ġsisa": 6191,
      "Ġmengklaim": 6192,
      "ĠSwiss": 6193,
      "jui": 6194,
      "ĠAnti": 6195,
      "ĠDemokrat": 6196,
      "eon": 6197,
      "Ġmembu": 6198,
      "ĠLuar": 6199,
      "ĠNatural": 6200,
      "Ġdikeluarkan": 6201,
      "gis": 6202,
      "Ġsebutan": 6203,
      "Ġbing": 6204,
      "kripsi": 6205,
      "Ġmengelola": 6206,
      "Ġtangk": 6207,
      "ĠKont": 6208,
      "uck": 6209,
      "bot": 6210,
      "Ġkeper": 6211,
      "linya": 6212,
      "Ġkeluarganya": 6213,
      "Ġpenya": 6214,
      "Ġminum": 6215,
      "Ġdetik": 6216,
      "onial": 6217,
      "ĠPenc": 6218,
      "Ġpertahanan": 6219,
      "Ġterasa": 6220,
      "itz": 6221,
      "Ġterkena": 6222,
      "Sen": 6223,
      "Ġputr": 6224,
      "ikh": 6225,
      "ĠSeorang": 6226,
      "MA": 6227,
      "ĠEli": 6228,
      "Ġmengarah": 6229,
      "ĠSystem": 6230,
      "rak": 6231,
      "ogen": 6232,
      "elamatan": 6233,
      "ĠGal": 6234,
      "ungkap": 6235,
      "Ġhidupnya": 6236,
      "Ġidentitas": 6237,
      "Ġpulsa": 6238,
      "Home": 6239,
      "Ġmainkan": 6240,
      "ody": 6241,
      "ĠBanten": 6242,
      "Ġkomersial": 6243,
      "Ġlo": 6244,
      "Ġditutup": 6245,
      "Ġsikap": 6246,
      "Ġtertua": 6247,
      "ĠSant": 6248,
      "Ġlatihan": 6249,
      "ĠWali": 6250,
      "Ġketahui": 6251,
      "ĠHenry": 6252,
      "ii": 6253,
      "Ġpanggung": 6254,
      "Ġpegunungan": 6255,
      "ĠMaluku": 6256,
      "ĠMiliter": 6257,
      "Ġbertanya": 6258,
      "ampang": 6259,
      "Ġhalnya": 6260,
      "ĠCons": 6261,
      "iarkan": 6262,
      "Ġsimp": 6263,
      "arki": 6264,
      "ĠMr": 6265,
      "ĠInstagram": 6266,
      "lasifikasi": 6267,
      "ĠHas": 6268,
      "Ġtelur": 6269,
      "Ġmenempati": 6270,
      "inci": 6271,
      "ĠCollege": 6272,
      "esain": 6273,
      "ulunya": 6274,
      "Ġangin": 6275,
      "ĠPemain": 6276,
      "ĠAug": 6277,
      "Ġperguruan": 6278,
      "Ġsingle": 6279,
      "ĠGrup": 6280,
      "ĠTempat": 6281,
      "Ġseja": 6282,
      "inggalan": 6283,
      "Ġmeski": 6284,
      "iety": 6285,
      "Ġmenghancurkan": 6286,
      "Ġprofit": 6287,
      "ĠInformation": 6288,
      "ĠPerwakilan": 6289,
      "yikan": 6290,
      "Ġpemasaran": 6291,
      "Ġberpengaruh": 6292,
      "Ġpelajaran": 6293,
      "Riwayat": 6294,
      "uklir": 6295,
      "ontrol": 6296,
      "Ġekstr": 6297,
      "Ġgag": 6298,
      "akhiri": 6299,
      "omunikasi": 6300,
      "Ġtulang": 6301,
      "Ġpenis": 6302,
      "Ġprop": 6303,
      "Ġpelabuhan": 6304,
      "Ġasuransi": 6305,
      "Ġmeneg": 6306,
      "Ġrangka": 6307,
      "pert": 6308,
      "endalikan": 6309,
      "Ġmemasang": 6310,
      "enam": 6311,
      "yaman": 6312,
      "Ġsusu": 6313,
      "Ġseber": 6314,
      "ĠReal": 6315,
      "ft": 6316,
      "ĠÅ": 6317,
      "ĠMir": 6318,
      "Ġkertas": 6319,
      "ĠMu": 6320,
      "Pel": 6321,
      "ujian": 6322,
      "ĠTerl": 6323,
      "Sejak": 6324,
      "etujui": 6325,
      "apal": 6326,
      "Ġinduk": 6327,
      "Ġkampanye": 6328,
      "uksesan": 6329,
      "Ġil": 6330,
      "olis": 6331,
      "tikel": 6332,
      "laman": 6333,
      "nah": 6334,
      "eo": 6335,
      "On": 6336,
      "antau": 6337,
      "ĠTingkat": 6338,
      "Ġpelaku": 6339,
      "ajaran": 6340,
      "Ġrest": 6341,
      "ĠBiasanya": 6342,
      "saan": 6343,
      "Ġmengal": 6344,
      "Ġkekalah": 6345,
      "ĠWon": 6346,
      "ĠJour": 6347,
      "Ġkombinasi": 6348,
      "Ġoksigen": 6349,
      "ĠGus": 6350,
      "ĠRaden": 6351,
      "ĠGuru": 6352,
      "Ġperlindungan": 6353,
      "ahaman": 6354,
      "ĠFrancis": 6355,
      "Ġcok": 6356,
      "mana": 6357,
      "Î±": 6358,
      "ery": 6359,
      "Alumni": 6360,
      "Ġcomp": 6361,
      "istrinya": 6362,
      "umpul": 6363,
      "encanaan": 6364,
      "Ġkecelakaan": 6365,
      "ĠRef": 6366,
      "ico": 6367,
      "''": 6368,
      "Ġbiru": 6369,
      "ĠBon": 6370,
      "atis": 6371,
      "Ġmemudahkan": 6372,
      "ahit": 6373,
      "anth": 6374,
      "ĠTaruhan": 6375,
      "Ġnominasi": 6376,
      "Ġtampaknya": 6377,
      "ependen": 6378,
      "ĠYay": 6379,
      "unuhan": 6380,
      "ungguh": 6381,
      "sara": 6382,
      "Ġsemi": 6383,
      "Ġpernyataan": 6384,
      "izinkan": 6385,
      "ugerah": 6386,
      "Ker": 6387,
      "wajib": 6388,
      "dat": 6389,
      "Ġdimasuk": 6390,
      "udang": 6391,
      "Ġindikator": 6392,
      "Para": 6393,
      "Ġseluas": 6394,
      "aceae": 6395,
      "ĠRi": 6396,
      "ĠNorman": 6397,
      "RT": 6398,
      "Ġpor": 6399,
      "Ġditampilkan": 6400,
      "Program": 6401,
      "ĠMun": 6402,
      "earch": 6403,
      "ĠRock": 6404,
      "ĠLam": 6405,
      "omotif": 6406,
      "inf": 6407,
      "ĠSekarang": 6408,
      "ĠWebsite": 6409,
      "enduduk": 6410,
      "ross": 6411,
      "PU": 6412,
      "Jadi": 6413,
      "rea": 6414,
      "Ġ?": 6415,
      "ĠKeh": 6416,
      "Politikus": 6417,
      "à¤": 6418,
      "ĠSamud": 6419,
      "ĠPl": 6420,
      "Ġproduser": 6421,
      "ĠBulan": 6422,
      "ĠClub": 6423,
      "Ġroda": 6424,
      "Ġout": 6425,
      "Ġakadem": 6426,
      "Ġrute": 6427,
      "Ġistrinya": 6428,
      "siapan": 6429,
      "Ġrahasia": 6430,
      "Ġkekurangan": 6431,
      "utkan": 6432,
      "embalikan": 6433,
      "ography": 6434,
      "angkalan": 6435,
      "Ġpangg": 6436,
      "ĠBerdasarkan": 6437,
      "ĠNabi": 6438,
      "bai": 6439,
      "ĠIN": 6440,
      "adiran": 6441,
      "Ġgelombang": 6442,
      "ĠInstitut": 6443,
      "ĠBuku": 6444,
      "Ġmemasukkan": 6445,
      "Ġkontak": 6446,
      "Permainan": 6447,
      "Ġotak": 6448,
      "ĠPand": 6449,
      "awar": 6450,
      "ĠMov": 6451,
      "awah": 6452,
      "ision": 6453,
      "ĠMartin": 6454,
      "Ġhendak": 6455,
      "sari": 6456,
      "orks": 6457,
      "esh": 6458,
      "ĠCur": 6459,
      "MI": 6460,
      "ĠRS": 6461,
      "ĠMeksiko": 6462,
      "Ġtepatnya": 6463,
      "mis": 6464,
      "Selama": 6465,
      "ĠSosial": 6466,
      "Ġperwakilan": 6467,
      "ĠLingk": 6468,
      "Ġberpeng": 6469,
      "%,": 6470,
      "ĠKata": 6471,
      "Ġcon": 6472,
      "ĠTimor": 6473,
      "Rujukan": 6474,
      "Ġditempatkan": 6475,
      "Set": 6476,
      "ext": 6477,
      "ĠNusa": 6478,
      "Ġmenjawab": 6479,
      "ĠWalaupun": 6480,
      "Ġditerapkan": 6481,
      "ullah": 6482,
      "Ġlive": 6483,
      "ikin": 6484,
      "ĠWanita": 6485,
      "enia": 6486,
      "Ġterjun": 6487,
      "ball": 6488,
      "hasilan": 6489,
      "Ġmenak": 6490,
      "oka": 6491,
      "Ġmerebut": 6492,
      "jam": 6493,
      "Nah": 6494,
      "Ġtahan": 6495,
      "Amerika": 6496,
      "ĠPhilippine": 6497,
      "Ġrutin": 6498,
      "Ġdiakui": 6499,
      "eidae": 6500,
      "ĠAtas": 6501,
      "ĠNusantara": 6502,
      "Ġsepeda": 6503,
      "zo": 6504,
      "Ġgar": 6505,
      "Ġpesisir": 6506,
      "ĠWash": 6507,
      "Ġkinerja": 6508,
      "isual": 6509,
      "arir": 6510,
      "Ġdataran": 6511,
      "adapan": 6512,
      "Ġbilangan": 6513,
      "Ġmedis": 6514,
      "Ġefisi": 6515,
      "tivasi": 6516,
      "SD": 6517,
      "Ġberikan": 6518,
      "ĠPasukan": 6519,
      "--": 6520,
      "Ġpolitikus": 6521,
      "ĠDev": 6522,
      "Ġ(),": 6523,
      "ĠPemilihan": 6524,
      "anggar": 6525,
      "ĠTanpa": 6526,
      "Ġkandungan": 6527,
      "Ġvolume": 6528,
      "ĠJl": 6529,
      "ĠKl": 6530,
      "ĠNaz": 6531,
      "ĠMotor": 6532,
      "ative": 6533,
      "alisa": 6534,
      "Ġditunjuk": 6535,
      "waktu": 6536,
      "Ġsedi": 6537,
      "Ġlapisan": 6538,
      "Ġanggaran": 6539,
      "ĠBad": 6540,
      "Tempat": 6541,
      "Ġsegi": 6542,
      "Ġmenghilangkan": 6543,
      "Ġmol": 6544,
      "dt": 6545,
      "essi": 6546,
      "als": 6547,
      "Ġperl": 6548,
      "TP": 6549,
      "ĠMeski": 6550,
      "ĠPersia": 6551,
      "juk": 6552,
      "ĠDanau": 6553,
      "ondisi": 6554,
      "Ġselamat": 6555,
      "Ġgula": 6556,
      "Ġpelaksanaan": 6557,
      "asana": 6558,
      "ĠMich": 6559,
      "ĠIndo": 6560,
      "ĠKeuangan": 6561,
      "Ġkekalahan": 6562,
      "Ã§": 6563,
      "Ġton": 6564,
      "Ġpenduduknya": 6565,
      "epakatan": 6566,
      "Ġvs": 6567,
      "Ġletak": 6568,
      "akaian": 6569,
      "ĠVictor": 6570,
      "ĠNar": 6571,
      "erusalem": 6572,
      "eff": 6573,
      "Sementara": 6574,
      "ĠAmor": 6575,
      "ĠBor": 6576,
      "ĠTrading": 6577,
      "Ġlaga": 6578,
      "ges": 6579,
      "egrasi": 6580,
      "odo": 6581,
      "Ġjackpot": 6582,
      "ĠJac": 6583,
      "Ġgo": 6584,
      "Ġmini": 6585,
      "Ġditambah": 6586,
      "ĠKid": 6587,
      "low": 6588,
      "Ġsec": 6589,
      "ĠKeluarga": 6590,
      "Ġpenghasilan": 6591,
      "Ã¡n": 6592,
      "ĠAyah": 6593,
      "Ġkonser": 6594,
      "ĠPus": 6595,
      "weg": 6596,
      "lakukan": 6597,
      "ĠRen": 6598,
      "Ġformat": 6599,
      "Ġrekening": 6600,
      "olisian": 6601,
      "ĠEf": 6602,
      "Ġlangit": 6603,
      "adopsi": 6604,
      "ĠWin": 6605,
      "rediksi": 6606,
      "Ġtransfer": 6607,
      "Ġregi": 6608,
      "Batas": 6609,
      "Ġberv": 6610,
      "ois": 6611,
      "Ġfakta": 6612,
      "ĠKhusus": 6613,
      "ĠLaboratorium": 6614,
      "Ġtombol": 6615,
      "Ġkelima": 6616,
      "asket": 6617,
      "ĠWid": 6618,
      "dirinya": 6619,
      "rey": 6620,
      "sip": 6621,
      "Ġanime": 6622,
      "Ġkepemimpinan": 6623,
      "omendasi": 6624,
      "Ġlolos": 6625,
      "NA": 6626,
      "Ġberpendapat": 6627,
      "Ġrok": 6628,
      "otik": 6629,
      "ĠSelanjutnya": 6630,
      "ĠTerdapat": 6631,
      "ĠInc": 6632,
      "Ġpengganti": 6633,
      "Ġmengajar": 6634,
      "ĠRem": 6635,
      "Ġundang": 6636,
      "ĠHab": 6637,
      "usa": 6638,
      "ajian": 6639,
      "Ġpensi": 6640,
      "vi": 6641,
      "Ġsul": 6642,
      "bawa": 6643,
      "Ġgejala": 6644,
      "ĠBidang": 6645,
      "Ġyou": 6646,
      "ektif": 6647,
      "Ġpenurunan": 6648,
      "damaian": 6649,
      "Kes": 6650,
      "ĠStu": 6651,
      "enian": 6652,
      "Ġmemperhatikan": 6653,
      "wakan": 6654,
      "echn": 6655,
      "ĠMed": 6656,
      "agaimana": 6657,
      "ĠBea": 6658,
      "ĠJenis": 6659,
      "ĠSociety": 6660,
      "ĠGun": 6661,
      "dium": 6662,
      "ulusan": 6663,
      "mpu": 6664,
      "ĠAdam": 6665,
      "ĠMuda": 6666,
      "Ġmenduduki": 6667,
      "ĠPrix": 6668,
      "Ġmengajukan": 6669,
      "lon": 6670,
      "FC": 6671,
      "Ġpang": 6672,
      "ĠKut": 6673,
      "Ġberkeb": 6674,
      "Ġanimasi": 6675,
      "andal": 6676,
      "Ġratusan": 6677,
      "Ġberumur": 6678,
      "Ġhukuman": 6679,
      "Ġmenerbitkan": 6680,
      "ĠMusik": 6681,
      "Ġmenet": 6682,
      "angsawan": 6683,
      "Ġmundur": 6684,
      "Ġpengiriman": 6685,
      "ax": 6686,
      "ĠBila": 6687,
      "ĠDik": 6688,
      "Ad": 6689,
      "\"|": 6690,
      "ĠSumatra": 6691,
      "ĠMong": 6692,
      "Ġpelatih": 6693,
      "Ġteknis": 6694,
      "ĠPac": 6695,
      "ĠGeorg": 6696,
      "idah": 6697,
      "Ġpinjaman": 6698,
      "ĠHi": 6699,
      "epaskan": 6700,
      "Ġizin": 6701,
      "ohanes": 6702,
      "Ġdijalan": 6703,
      "ambaran": 6704,
      "eus": 6705,
      "ĠPost": 6706,
      "ĠHouse": 6707,
      "Ġliga": 6708,
      "ĠBra": 6709,
      "Ġsahabat": 6710,
      "ĠDinas": 6711,
      "Ġcari": 6712,
      "Trans": 6713,
      "ĠMA": 6714,
      "view": 6715,
      "Ġmeluncurkan": 6716,
      "Ġras": 6717,
      "Ġmenurunkan": 6718,
      "ajat": 6719,
      "ĠBy": 6720,
      "Ġpemuda": 6721,
      "Ġpenyedia": 6722,
      "ropis": 6723,
      "Ġdini": 6724,
      "Trad": 6725,
      "Ġstabil": 6726,
      "Ġrilis": 6727,
      "Ġditangkap": 6728,
      "ĠAlas": 6729,
      "obati": 6730,
      "Ġketidak": 6731,
      "tures": 6732,
      "Ġbertindak": 6733,
      "eluaran": 6734,
      "kamah": 6735,
      "Ġrasi": 6736,
      "safat": 6737,
      "Geografi": 6738,
      "Ġph": 6739,
      "Ġmakin": 6740,
      "Ġinvestor": 6741,
      "Ġemosi": 6742,
      "Ġdiperkenalkan": 6743,
      "rut": 6744,
      "Ġmengirimkan": 6745,
      "ĠMesin": 6746,
      "Ġkebudayaan": 6747,
      "ĠKuno": 6748,
      "Ġmelarikan": 6749,
      "Ġnggak": 6750,
      "ĠHall": 6751,
      "ikirkan": 6752,
      "ĠOperasi": 6753,
      "eed": 6754,
      "unjungan": 6755,
      "Ġperingatan": 6756,
      "work": 6757,
      "Ġhebat": 6758,
      "Ġtahunan": 6759,
      "Ġmelah": 6760,
      "ily": 6761,
      "ilir": 6762,
      "Ġdetail": 6763,
      "Ġdibu": 6764,
      "untuk": 6765,
      "vasi": 6766,
      "ĠPil": 6767,
      "ĠGod": 6768,
      "Ġperek": 6769,
      "ĠKerja": 6770,
      "ĠRadio": 6771,
      "ĠMajelis": 6772,
      "ĠCamb": 6773,
      "Ġandroid": 6774,
      "Ġharian": 6775,
      "madiyah": 6776,
      "ents": 6777,
      "ĠManch": 6778,
      "ĠChi": 6779,
      "utasi": 6780,
      "uhur": 6781,
      "olia": 6782,
      "Ġha": 6783,
      "ribut": 6784,
      "Ġkelam": 6785,
      "Ġmenderita": 6786,
      "buhkan": 6787,
      "Ġsol": 6788,
      "ĠIbrani": 6789,
      "Ġdisamp": 6790,
      "Undang": 6791,
      "Ġdimasukkan": 6792,
      "onan": 6793,
      "Ġkejah": 6794,
      "Ġmendatang": 6795,
      "yaratan": 6796,
      "ĠWill": 6797,
      "Ġklien": 6798,
      "Ġdiatur": 6799,
      "Ġaslinya": 6800,
      "emuka": 6801,
      "Ġserver": 6802,
      "Ġberganti": 6803,
      "yli": 6804,
      "andra": 6805,
      "rogen": 6806,
      "ĠJean": 6807,
      "ĠCek": 6808,
      "yangnya": 6809,
      "Ġberbahaya": 6810,
      "ĠYear": 6811,
      "anah": 6812,
      "Ġmemperkenalkan": 6813,
      "ĠWhat": 6814,
      "Ġkompet": 6815,
      "ĠBermain": 6816,
      "Pembagian": 6817,
      "ĠDenmark": 6818,
      "eling": 6819,
      "ĠLembaga": 6820,
      "ĠAdipati": 6821,
      "Ġserangga": 6822,
      "iraan": 6823,
      "ĠJer": 6824,
      "ĠMary": 6825,
      "Ġtepi": 6826,
      "ett": 6827,
      "ĠJen": 6828,
      "Ġjer": 6829,
      "day": 6830,
      "Ġsoft": 6831,
      "amar": 6832,
      "Ġperkebunan": 6833,
      "ED": 6834,
      "bal": 6835,
      "Ġkerap": 6836,
      "asalahan": 6837,
      "Ġsuci": 6838,
      "enek": 6839,
      "Ġkejahatan": 6840,
      "Ġseper": 6841,
      "ĠDur": 6842,
      "Ġtersendiri": 6843,
      "sw": 6844,
      "ius": 6845,
      "isensi": 6846,
      "ĠPK": 6847,
      "Ġcatalog": 6848,
      "ĠWashington": 6849,
      "Ġgelap": 6850,
      "ĠExp": 6851,
      "ĠGedung": 6852,
      "Ġkoleksi": 6853,
      "impunan": 6854,
      "Kons": 6855,
      "embar": 6856,
      "Ġketerampilan": 6857,
      "Ġmelaporkan": 6858,
      "ĠArgentina": 6859,
      "Ġali": 6860,
      "jikan": 6861,
      "ĠBoy": 6862,
      "ĠBelgia": 6863,
      "ĠPin": 6864,
      "agamaan": 6865,
      "ĠPul": 6866,
      "galus": 6867,
      "Ġarus": 6868,
      "ertian": 6869,
      "ĠMinggu": 6870,
      "hta": 6871,
      "ĠPam": 6872,
      "edral": 6873,
      "likasikan": 6874,
      "stragalus": 6875,
      "Ġsenior": 6876,
      "asangan": 6877,
      "ĠBatak": 6878,
      "Ġbulu": 6879,
      "Ġmengakses": 6880,
      "Ġpastikan": 6881,
      "ĠAssoci": 6882,
      "ovid": 6883,
      "ĠTu": 6884,
      "ĠKart": 6885,
      "lace": 6886,
      "ĠPalest": 6887,
      "ĠYouT": 6888,
      "ĠKara": 6889,
      "ordin": 6890,
      "Ġpandemi": 6891,
      "Ġtadi": 6892,
      "ĠYayasan": 6893,
      "ency": 6894,
      "Ġlabel": 6895,
      "ĠJin": 6896,
      "ĠSya": 6897,
      "ĠBengk": 6898,
      "Ġkomentar": 6899,
      "hip": 6900,
      "akuan": 6901,
      "ĠBudaya": 6902,
      "oe": 6903,
      "ĠOut": 6904,
      "Î¿": 6905,
      "Ġanaknya": 6906,
      "Ġberas": 6907,
      "Ġaja": 6908,
      "ĠBerk": 6909,
      "Ġskala": 6910,
      "ĠKeputusan": 6911,
      "ĠAlf": 6912,
      "tau": 6913,
      "ĠTerbaru": 6914,
      "ĠNob": 6915,
      "hluk": 6916,
      "ĠDec": 6917,
      "Ġperairan": 6918,
      "Ġumur": 6919,
      "alk": 6920,
      "ĠVi": 6921,
      "Ġprajurit": 6922,
      "Ġekor": 6923,
      "Ġterdaftar": 6924,
      "Ġjembatan": 6925,
      "hak": 6926,
      "ekuensi": 6927,
      "Ġvia": 6928,
      "Ġpenjelasan": 6929,
      "Ġpemberontakan": 6930,
      "Ġbervariasi": 6931,
      "Ġmuseum": 6932,
      "edy": 6933,
      "Ġhttps": 6934,
      "PM": 6935,
      "Ġmenceritakan": 6936,
      "Ġplas": 6937,
      "ĠAy": 6938,
      "Ġsenyawa": 6939,
      "ekatan": 6940,
      "Ġperson": 6941,
      "ature": 6942,
      "anggi": 6943,
      "oshi": 6944,
      "Ġpembelian": 6945,
      "ĠInstitute": 6946,
      "ĠPerp": 6947,
      "Ġapalagi": 6948,
      "udayaan": 6949,
      "Ġmengacu": 6950,
      "Ġbakteri": 6951,
      "Ġfac": 6952,
      "Ġatom": 6953,
      "adis": 6954,
      "Ġreferensi": 6955,
      "iness": 6956,
      "ĠST": 6957,
      "ĠBersama": 6958,
      "sung": 6959,
      "ecil": 6960,
      "ayan": 6961,
      "ĠJoseph": 6962,
      "Ġinti": 6963,
      "sman": 6964,
      ":#": 6965,
      "etul": 6966,
      "Ġhabis": 6967,
      "roversi": 6968,
      "Ġsetu": 6969,
      "Ġmelahirkan": 6970,
      "Ġteg": 6971,
      "Bangsa": 6972,
      "ring": 6973,
      "sp": 6974,
      "ĠKudus": 6975,
      "Ġdidalam": 6976,
      "Ġbergantung": 6977,
      "ĠPort": 6978,
      "Ġdirek": 6979,
      "ĠProtestan": 6980,
      "Ġu": 6981,
      "ĠPondok": 6982,
      "Ġbang": 6983,
      "ĠCa": 6984,
      "terior": 6985,
      "ĠPu": 6986,
      "ĠSah": 6987,
      "ĠMulai": 6988,
      "ĠSimp": 6989,
      "ĠTemp": 6990,
      "Te": 6991,
      "Ġmatematika": 6992,
      "Laba": 6993,
      "ÑĢ": 6994,
      "ĠTah": 6995,
      "ose": 6996,
      "Ġkelebihan": 6997,
      "Ġhasilnya": 6998,
      "lagu": 6999,
      "Ġterbanyak": 7000,
      "Ġzat": 7001,
      "inar": 7002,
      "Ġiklim": 7003,
      "anam": 7004,
      "ĠMungkin": 7005,
      "Ġfot": 7006,
      "Ġpam": 7007,
      "Ġlel": 7008,
      "Ġsembilan": 7009,
      "Ġtanggung": 7010,
      "Ġsiang": 7011,
      "ĠAdv": 7012,
      "llum": 7013,
      "adangan": 7014,
      "onya": 7015,
      "ĠSanta": 7016,
      "Ġnuklir": 7017,
      "eligi": 7018,
      "Ġdigambarkan": 7019,
      "ĠDj": 7020,
      "ĠUsaha": 7021,
      "ĠBan": 7022,
      "araf": 7023,
      "Ġbandara": 7024,
      "ĠMetro": 7025,
      "Ġagresif": 7026,
      "ekt": 7027,
      "angkabau": 7028,
      "Ġsosi": 7029,
      "isisi": 7030,
      "otlandia": 7031,
      "Ġinfeksi": 7032,
      "ĠNas": 7033,
      "teman": 7034,
      "Ġperjuangan": 7035,
      "ĠMenengah": 7036,
      "Ġpenderita": 7037,
      "able": 7038,
      "Ġdomino": 7039,
      "Ġmenyebar": 7040,
      "Ġkesuksesan": 7041,
      "okteran": 7042,
      "Ġsapi": 7043,
      "elahan": 7044,
      "Ġamb": 7045,
      "wat": 7046,
      "Ġstrategis": 7047,
      "zon": 7048,
      "ĠEdward": 7049,
      "ĠRis": 7050,
      "ĠRub": 7051,
      "Ġkampus": 7052,
      "Ġamat": 7053,
      "arjo": 7054,
      "Ġsengaja": 7055,
      "ĠTas": 7056,
      "Ġpenyer": 7057,
      "Ġperwira": 7058,
      "emia": 7059,
      "Ã³n": 7060,
      "Ġkatanya": 7061,
      "Ġdiciptakan": 7062,
      "ĠPutih": 7063,
      "Komp": 7064,
      "ĠVersi": 7065,
      "Ġmakam": 7066,
      "Ġperasaan": 7067,
      "tidak": 7068,
      "Car": 7069,
      "ĠRaj": 7070,
      "zah": 7071,
      "Ġmenghar": 7072,
      "Ġlaptop": 7073,
      "Ġgubernur": 7074,
      "ĠNot": 7075,
      "ĠYu": 7076,
      "ĠBri": 7077,
      "ĠYoung": 7078,
      "Ġspider": 7079,
      "Ġmengaw": 7080,
      "ormati": 7081,
      "Hasil": 7082,
      "Ġmemerintah": 7083,
      "OC": 7084,
      "ĠRh": 7085,
      "ugu": 7086,
      "ĠMobile": 7087,
      "Ġdanau": 7088,
      "Ġkucing": 7089,
      "esor": 7090,
      "apur": 7091,
      "meng": 7092,
      "ĠBir": 7093,
      "Uni": 7094,
      "Ġmendek": 7095,
      "Ġversion": 7096,
      "ĠHill": 7097,
      "ĠMemb": 7098,
      "ĠOxford": 7099,
      "Ġprodusen": 7100,
      "Ġinstr": 7101,
      "ĠRoh": 7102,
      "ĠPay": 7103,
      "eluk": 7104,
      "ĠPra": 7105,
      "ĠBut": 7106,
      "ĠLand": 7107,
      "esign": 7108,
      "Masa": 7109,
      "Ġpap": 7110,
      "ĠCorpor": 7111,
      "Ġharinya": 7112,
      "hani": 7113,
      "ĠPember": 7114,
      "ĠIstana": 7115,
      "Ġkain": 7116,
      "ĠDayak": 7117,
      "ĠKecil": 7118,
      "tiba": 7119,
      "ograph": 7120,
      "alkan": 7121,
      "Ġpekan": 7122,
      "awas": 7123,
      "Ġibadah": 7124,
      "Ġmenangkap": 7125,
      "Ġminim": 7126,
      "ĠMuhammadiyah": 7127,
      "chen": 7128,
      "ĠFred": 7129,
      "Ġtren": 7130,
      "ĠYohanes": 7131,
      "ikul": 7132,
      "lash": 7133,
      "Ġbiner": 7134,
      "ragon": 7135,
      "ĠYus": 7136,
      "Ġdidapatkan": 7137,
      "yamanan": 7138,
      "imalkan": 7139,
      "Berdasarkan": 7140,
      "Yang": 7141,
      "Ġkebiasaan": 7142,
      "ĠLong": 7143,
      "Ġterkemuka": 7144,
      "Ġluka": 7145,
      "ĠAraneae": 7146,
      "Ġmenyerap": 7147,
      "Ġrangkaian": 7148,
      "ikmati": 7149,
      "Ġberlat": 7150,
      "ĠNat": 7151,
      "ĠSud": 7152,
      "gagalan": 7153,
      "Ag": 7154,
      "Ġrupiah": 7155,
      "ĠTujuan": 7156,
      "Ã±": 7157,
      "Ġsent": 7158,
      "oku": 7159,
      "ĠBukan": 7160,
      "enom": 7161,
      "indung": 7162,
      "Ġcantik": 7163,
      "mikan": 7164,
      "DA": 7165,
      "ĠKun": 7166,
      "ĠHold": 7167,
      "ĠLim": 7168,
      "ĠLas": 7169,
      "Ġpenyimp": 7170,
      "Ġaudi": 7171,
      "Sing": 7172,
      "utra": 7173,
      "Ġinginkan": 7174,
      "ĠBapak": 7175,
      "Ġmemuat": 7176,
      "Ġamp": 7177,
      "ion": 7178,
      "edisi": 7179,
      "Ġpembelajaran": 7180,
      "borasi": 7181,
      "ĠAth": 7182,
      "agus": 7183,
      "ĠTangerang": 7184,
      "ĠStev": 7185,
      "bankan": 7186,
      "du": 7187,
      "Ġdioperasikan": 7188,
      "Ġwafat": 7189,
      "Ġtantangan": 7190,
      "Ð½": 7191,
      "Ġsesi": 7192,
      "ĠShow": 7193,
      "aksasa": 7194,
      "ĠSemen": 7195,
      "ombyli": 7196,
      "Ġurusan": 7197,
      "ĠTol": 7198,
      "ĠSes": 7199,
      "onomian": 7200,
      "Ġkeunggulan": 7201,
      "pu": 7202,
      "Ġcor": 7203,
      "ĠTen": 7204,
      "intar": 7205,
      "lines": 7206,
      "ĠSeries": 7207,
      "bola": 7208,
      "odifikasi": 7209,
      "ĠGab": 7210,
      "ĠMinangkabau": 7211,
      "Ġbib": 7212,
      "sial": 7213,
      "Ġpembunuhan": 7214,
      "Ġarsitektur": 7215,
      "ĠProses": 7216,
      "Ġprotein": 7217,
      "Ġsilahkan": 7218,
      "elli": 7219,
      "ophyllum": 7220,
      "Ġmakhluk": 7221,
      "Ġtes": 7222,
      "Bagi": 7223,
      "pl": 7224,
      "ĠKhan": 7225,
      "arth": 7226,
      "Ġbaju": 7227,
      "oyo": 7228,
      "fras": 7229,
      "ĠDrs": 7230,
      "risis": 7231,
      "antang": 7232,
      "Ġmakna": 7233,
      "Semua": 7234,
      "ĠRay": 7235,
      "ello": 7236,
      "Ġproperti": 7237,
      "Ġdiaj": 7238,
      "ĠSkotlandia": 7239,
      "erp": 7240,
      "nia": 7241,
      "inga": 7242,
      "Ġpembuat": 7243,
      "eft": 7244,
      "ĠLes": 7245,
      "ĠDatabase": 7246,
      "ĠAC": 7247,
      "ĠWisata": 7248,
      "Ac": 7249,
      "ĠShe": 7250,
      "Ġmulut": 7251,
      "Asteroid": 7252,
      "Ġdiakses": 7253,
      "Ġkualifikasi": 7254,
      "ĠPolit": 7255,
      "Ġradi": 7256,
      "ĠViv": 7257,
      "urung": 7258,
      "ĠVI": 7259,
      "emaat": 7260,
      "ehi": 7261,
      "umahan": 7262,
      "Ġdiganti": 7263,
      "ĠLan": 7264,
      "ĠKasino": 7265,
      "akanan": 7266,
      "ĠSul": 7267,
      "otaan": 7268,
      "Ġmenangani": 7269,
      "Ġnot": 7270,
      "Ġdaratan": 7271,
      "Ġberjarak": 7272,
      "Ġlomba": 7273,
      "Ġpenawaran": 7274,
      "Ġmenandatangani": 7275,
      "zer": 7276,
      "Ġribuan": 7277,
      "ancang": 7278,
      "Ġkelamin": 7279,
      "Ġhalus": 7280,
      "Sebuah": 7281,
      "Ġgolongan": 7282,
      "ĠYouTube": 7283,
      "OT": 7284,
      "tujuan": 7285,
      "Ġterang": 7286,
      "ukisan": 7287,
      "Ġsejenis": 7288,
      "Ġinternal": 7289,
      "Ġlemah": 7290,
      "alangan": 7291,
      "Ġparah": 7292,
      "Ġpersegi": 7293,
      "Ġbutuh": 7294,
      "osan": 7295,
      "jemahkan": 7296,
      "Ġdipengaruhi": 7297,
      "ĠSolo": 7298,
      "Ġkendali": 7299,
      "ĠSepak": 7300,
      "Ġdinamakan": 7301,
      "ĠKelompok": 7302,
      "dar": 7303,
      "sihkan": 7304,
      "ĠKeamanan": 7305,
      "ĠSakit": 7306,
      "emenang": 7307,
      "med": 7308,
      "ŃĲ": 7309,
      "Ġdivisi": 7310,
      "Ġthat": 7311,
      "abeth": 7312,
      "Ġseiring": 7313,
      "atikan": 7314,
      "Ġsebaliknya": 7315,
      "rab": 7316,
      "ambo": 7317,
      "ambu": 7318,
      "ĠTentu": 7319,
      "mah": 7320,
      "Ġdipindahkan": 7321,
      "ĠLouis": 7322,
      "xy": 7323,
      "sychot": 7324,
      "menia": 7325,
      "Apa": 7326,
      "caman": 7327,
      "Ġpenjara": 7328,
      "ĠCat": 7329,
      "ĠMik": 7330,
      "onjol": 7331,
      "ĠLeague": 7332,
      "reg": 7333,
      "abet": 7334,
      "Ġdekade": 7335,
      "ĠTimes": 7336,
      "Pulau": 7337,
      "Ġkekerasan": 7338,
      "Ġmenghentikan": 7339,
      "Ġatlet": 7340,
      "wijaya": 7341,
      "ĠDewa": 7342,
      "ĠManajemen": 7343,
      "Ġrestoran": 7344,
      "sychotria": 7345,
      "ulette": 7346,
      "oner": 7347,
      "Ġpost": 7348,
      "oper": 7349,
      "ĠHadi": 7350,
      "Ġdewan": 7351,
      "dengan": 7352,
      "mata": 7353,
      "tod": 7354,
      "tle": 7355,
      "ĠBerlin": 7356,
      "emas": 7357,
      "Ġparlemen": 7358,
      "Ġmaskapai": 7359,
      "Ġdikelola": 7360,
      "Ġny": 7361,
      "Ġkontrol": 7362,
      "ĠQue": 7363,
      "ves": 7364,
      "ĠAkhirnya": 7365,
      "Ġdipl": 7366,
      "Ġcap": 7367,
      "ĠFat": 7368,
      "tai": 7369,
      "ĠHus": 7370,
      "ĠAman": 7371,
      "Ġdolar": 7372,
      "Ġkira": 7373,
      "cap": 7374,
      "Baca": 7375,
      "Ġsetahun": 7376,
      "Ġmanis": 7377,
      "Ġmaterial": 7378,
      "count": 7379,
      "olic": 7380,
      "ecuali": 7381,
      "Ġtersisa": 7382,
      "embah": 7383,
      "egoro": 7384,
      "Ġsetuju": 7385,
      "ader": 7386,
      "ĠMahasiswa": 7387,
      "ĠAkibat": 7388,
      "ĠYerusalem": 7389,
      "rown": 7390,
      "ĠBig": 7391,
      "ĠHati": 7392,
      "lie": 7393,
      "ycet": 7394,
      "Ġaf": 7395,
      "ariat": 7396,
      "ĠPot": 7397,
      "ĠCont": 7398,
      "Ġpensiun": 7399,
      "KT": 7400,
      "Ġkac": 7401,
      "Ġpapan": 7402,
      "erintahkan": 7403,
      "mos": 7404,
      "ĠStaf": 7405,
      "ĠPaulus": 7406,
      "Ġsatelit": 7407,
      "ÅĤ": 7408,
      "ĠStand": 7409,
      "Ġpenyel": 7410,
      "omendasikan": 7411,
      "Ġna": 7412,
      "ejah": 7413,
      "anjir": 7414,
      "Ġkesepakatan": 7415,
      "ĠDaniel": 7416,
      "VD": 7417,
      "Ġ*": 7418,
      "asang": 7419,
      "ĠAngeles": 7420,
      "Ġkala": 7421,
      "ichi": 7422,
      "ĠPenduduk": 7423,
      "vin": 7424,
      "ĠManusia": 7425,
      "Î½": 7426,
      "Ġkontes": 7427,
      "Ġpemikiran": 7428,
      "Äĩ": 7429,
      "ĠToy": 7430,
      "ĠBre": 7431,
      "ĠRW": 7432,
      "Ġpraktis": 7433,
      "ĠOption": 7434,
      "Ġmendi": 7435,
      "Ġsatuan": 7436,
      "ĠImam": 7437,
      "ĠAndr": 7438,
      "enya": 7439,
      "Ġmenonton": 7440,
      "edur": 7441,
      "ments": 7442,
      "adirkan": 7443,
      "wo": 7444,
      "ĠTime": 7445,
      "ĠPakistan": 7446,
      "inum": 7447,
      "Ġcol": 7448,
      "upsi": 7449,
      "Ġmenyel": 7450,
      "Ġmengalir": 7451,
      "Ġbeliau": 7452,
      "Ġpegawai": 7453,
      "ĠRoyal": 7454,
      "Ġback": 7455,
      "Ġketu": 7456,
      "unus": 7457,
      "ĠGlobal": 7458,
      "ĠHasan": 7459,
      "RA": 7460,
      "Ġrock": 7461,
      "arai": 7462,
      "tant": 7463,
      "Ġkelapa": 7464,
      "asihat": 7465,
      "Ġdimanfaatkan": 7466,
      "wegia": 7467,
      "!!": 7468,
      "stein": 7469,
      "Ġdilaporkan": 7470,
      "ĠMill": 7471,
      "rosoft": 7472,
      "ĠSK": 7473,
      "Ġterhubung": 7474,
      "ĠLetkol": 7475,
      "Ġmemerintahkan": 7476,
      "Ġmempromosikan": 7477,
      "Ġbendera": 7478,
      "Ġkotak": 7479,
      "Ġend": 7480,
      "ĠKn": 7481,
      "Ġdepartemen": 7482,
      "Ġjadwal": 7483,
      "Ġseminggu": 7484,
      "dur": 7485,
      "Ġpasir": 7486,
      "Ġresep": 7487,
      "ĠØ": 7488,
      "oss": 7489,
      "Ġalamat": 7490,
      "Ġkenyamanan": 7491,
      "erikatan": 7492,
      "kini": 7493,
      "ucapkan": 7494,
      "ĠSMK": 7495,
      "Ġpendekatan": 7496,
      "zy": 7497,
      "ĠLor": 7498,
      "ribus": 7499,
      "ebaskan": 7500,
      "ĠPekan": 7501,
      "Ġpengadilan": 7502,
      "Ġberkebangsaan": 7503,
      "agung": 7504,
      "Ġvariasi": 7505,
      "ĠSebelah": 7506,
      "Ġindependen": 7507,
      "Ġdibunuh": 7508,
      "aler": 7509,
      "the": 7510,
      "ville": 7511,
      "ĠMid": 7512,
      "awang": 7513,
      "ĠAsh": 7514,
      "Ġbersaing": 7515,
      "ras": 7516,
      "ĠNav": 7517,
      "Ġmemperbaiki": 7518,
      "aminya": 7519,
      "Ġmode": 7520,
      "gement": 7521,
      "ĠKisah": 7522,
      "Ġberlokasi": 7523,
      "Ġberlanjut": 7524,
      "ê¦": 7525,
      "Ġgak": 7526,
      "enanya": 7527,
      "ĠBern": 7528,
      "ĠPalembang": 7529,
      "Ġrec": 7530,
      "ĠHir": 7531,
      "ĠHow": 7532,
      "Ġkeagamaan": 7533,
      "Ġfiksi": 7534,
      "ĠDewi": 7535,
      "ĠKomite": 7536,
      "ĠBandara": 7537,
      "Ġpasaran": 7538,
      "ype": 7539,
      "Ġsurv": 7540,
      "ĠGerakan": 7541,
      "Ġpasal": 7542,
      "Ġdiduga": 7543,
      "ĠBekasi": 7544,
      "ycetoph": 7545,
      "car": 7546,
      "ĠPortugal": 7547,
      "abad": 7548,
      "Ġjenderal": 7549,
      "ady": 7550,
      "ĠMaster": 7551,
      "ĠDomino": 7552,
      "Ġherbal": 7553,
      "Ġvon": 7554,
      "Ġdisimpan": 7555,
      "ĠInjil": 7556,
      "Ġmenyelamatkan": 7557,
      "ĠDesain": 7558,
      "ĠSig": 7559,
      "lama": 7560,
      "ĠLar": 7561,
      "ĠHP": 7562,
      "Ġpadat": 7563,
      "ĠPortugis": 7564,
      "Ġvarian": 7565,
      "ĠSom": 7566,
      "ĠDKI": 7567,
      "Ġsobat": 7568,
      "Ġpengikut": 7569,
      "ĠSebab": 7570,
      "ĠPerb": 7571,
      "ĠRat": 7572,
      "ĠKari": 7573,
      "Ġpid": 7574,
      "ĠBlog": 7575,
      "ector": 7576,
      "ĠPasifik": 7577,
      "Ġwisatawan": 7578,
      "ĠWaktu": 7579,
      "ĠApalagi": 7580,
      "jukan": 7581,
      "kira": 7582,
      "ingkali": 7583,
      "eriksaan": 7584,
      "Ġkebebasan": 7585,
      "Ġmembuktikan": 7586,
      "Ġtayang": 7587,
      "ĠÂ°": 7588,
      "ĠSmith": 7589,
      "ĠAnth": 7590,
      "ĠCD": 7591,
      "ingkan": 7592,
      "olitan": 7593,
      "eteksi": 7594,
      "ĠEst": 7595,
      "ĠKebudayaan": 7596,
      "rin": 7597,
      "ĠDim": 7598,
      "Ġpra": 7599,
      "ĠTerb": 7600,
      "ĠPed": 7601,
      "ĠHat": 7602,
      "td": 7603,
      "ĠMada": 7604,
      "acing": 7605,
      "Ġmunisipalitas": 7606,
      "ĠWis": 7607,
      "etakkan": 7608,
      "ĠFis": 7609,
      "Ġketat": 7610,
      "ĠModel": 7611,
      "wancara": 7612,
      "Ġmengganggu": 7613,
      "Ġmengakhiri": 7614,
      "atkan": 7615,
      "Ġgempa": 7616,
      "bophyllum": 7617,
      "aluasi": 7618,
      "lem": 7619,
      "Ġpenja": 7620,
      "Ġanjing": 7621,
      "ĠKul": 7622,
      "atic": 7623,
      "Ġgagasan": 7624,
      "BO": 7625,
      "onald": 7626,
      "Ġberkurang": 7627,
      "Ġnet": 7628,
      "Ġmempertimbangkan": 7629,
      "ekul": 7630,
      "Ġbenteng": 7631,
      "eki": 7632,
      "ajikan": 7633,
      "ainya": 7634,
      "ĠBagaimana": 7635,
      "ĠBeg": 7636,
      "Ġsamb": 7637,
      "Ġkaca": 7638,
      "siden": 7639,
      "Ġdiminta": 7640,
      "book": 7641,
      "lip": 7642,
      "ĠTegal": 7643,
      "Ġketentuan": 7644,
      "âĢĿ,": 7645,
      "Ġbangsawan": 7646,
      "Ġkaisar": 7647,
      "tida": 7648,
      "ocal": 7649,
      "Ġpromo": 7650,
      "tive": 7651,
      "Ġdires": 7652,
      "Ġsuasana": 7653,
      "ĠJasa": 7654,
      "indo": 7655,
      "ĠFormula": 7656,
      "ĠDigital": 7657,
      "Ġberangkat": 7658,
      "ĠMaros": 7659,
      "eriksa": 7660,
      "dim": 7661,
      "ĠBaik": 7662,
      "utr": 7663,
      "Ġbencana": 7664,
      "Ġditambahkan": 7665,
      "iliasi": 7666,
      "Ġterdekat": 7667,
      "Ġkrim": 7668,
      "orejo": 7669,
      "Ġkonsumsi": 7670,
      "ĠKongres": 7671,
      "tag": 7672,
      "itamin": 7673,
      "residen": 7674,
      "die": 7675,
      "Ġkariernya": 7676,
      "ĠLeb": 7677,
      "ombyliidae": 7678,
      "ield": 7679,
      "Ġlum": 7680,
      "Ġpermasalahan": 7681,
      "Ġmenyi": 7682,
      "ubur": 7683,
      "ĠMedi": 7684,
      "led": 7685,
      "Ġlanda": 7686,
      "leksi": 7687,
      "irus": 7688,
      "Ġakurat": 7689,
      "Å¡": 7690,
      "ĠStreet": 7691,
      "Ġcuma": 7692,
      "ĠPalestina": 7693,
      "ertai": 7694,
      "ĠSurakarta": 7695,
      "ĠBinomo": 7696,
      "Ġmenentang": 7697,
      "ĠWo": 7698,
      "reen": 7699,
      "Ġmenginginkan": 7700,
      "ĠLayanan": 7701,
      "ĠSoekar": 7702,
      "Ġsoftware": 7703,
      "unkan": 7704,
      "ĠCambridge": 7705,
      "ĠKolonel": 7706,
      "seperti": 7707,
      "Ġkarbon": 7708,
      "efinisikan": 7709,
      "ĠIsland": 7710,
      "Ġtempur": 7711,
      "wati": 7712,
      "ĠAmb": 7713,
      "ĠPBB": 7714,
      "ĠShin": 7715,
      "ĠJournal": 7716,
      "ĠPeraturan": 7717,
      "May": 7718,
      "VID": 7719,
      "Tip": 7720,
      "lywood": 7721,
      "isl": 7722,
      "Ġperak": 7723,
      "frastruktur": 7724,
      "EC": 7725,
      "ĠPolri": 7726,
      "Kecamatan": 7727,
      "Î¹": 7728,
      "raft": 7729,
      "won": 7730,
      "ĠLog": 7731,
      "ĠRecords": 7732,
      "Sal": 7733,
      "ĠShar": 7734,
      "vel": 7735,
      "ĠModern": 7736,
      "ĠDit": 7737,
      "Ġpenjual": 7738,
      "Ġpip": 7739,
      "Ġzona": 7740,
      "Ġditemp": 7741,
      "ingkatkan": 7742,
      "tempat": 7743,
      "Ġmengenakan": 7744,
      "ĠArmenia": 7745,
      "elilingi": 7746,
      "luan": 7747,
      "aton": 7748,
      "alanya": 7749,
      "ĠSon": 7750,
      "ĠBudi": 7751,
      "Ġseniman": 7752,
      "Ġuskup": 7753,
      "Ġoperator": 7754,
      "Ġpersyaratan": 7755,
      "ĠOS": 7756,
      "Ġreview": 7757,
      "ĠJung": 7758,
      "ĠSeg": 7759,
      "ĠHingga": 7760,
      "arm": 7761,
      "abit": 7762,
      "ĠNap": 7763,
      "ĠMadrid": 7764,
      "Ġbot": 7765,
      "etas": 7766,
      "ĠJa": 7767,
      "Ġtra": 7768,
      "Ġkonsisten": 7769,
      "Ġmenyerahkan": 7770,
      "Ġungg": 7771,
      "unjang": 7772,
      "Ġpanggilan": 7773,
      "Ġpuisi": 7774,
      "gasi": 7775,
      "atalkan": 7776,
      "EO": 7777,
      "ally": 7778,
      "ĠPublish": 7779,
      "Galeri": 7780,
      "ĠKela": 7781,
      "ungguhnya": 7782,
      "Demografi": 7783,
      "Ġuji": 7784,
      "uke": 7785,
      "ĠPower": 7786,
      "emuk": 7787,
      "yakinan": 7788,
      "ces": 7789,
      "Ġhanyalah": 7790,
      "Ġhip": 7791,
      "ĠIrak": 7792,
      "Ġulama": 7793,
      "Ġsadar": 7794,
      "Ġkepadanya": 7795,
      "itmen": 7796,
      "Ġtol": 7797,
      "ĠKereta": 7798,
      "ĠSama": 7799,
      "ĠCode": 7800,
      "ĠPL": 7801,
      "Ġrobot": 7802,
      "ĠCip": 7803,
      "lag": 7804,
      "Ġstaf": 7805,
      "Ġpengelolaan": 7806,
      "ambangan": 7807,
      "Ġtrik": 7808,
      "isinya": 7809,
      "BM": 7810,
      "Ġpetugas": 7811,
      "oso": 7812,
      "Ġpis": 7813,
      "rof": 7814,
      "ancangan": 7815,
      "ĠRevolusi": 7816,
      "Itu": 7817,
      "antum": 7818,
      "ĠGreat": 7819,
      "ĠMahkamah": 7820,
      "upaya": 7821,
      "Ġdiinginkan": 7822,
      "lement": 7823,
      "ĠAdapun": 7824,
      "Ġmobile": 7825,
      "Ġimam": 7826,
      "Ñģ": 7827,
      "Ġberalih": 7828,
      "Ġtimbul": 7829,
      "ĠNga": 7830,
      "Ġperut": 7831,
      "Ġsaud": 7832,
      "Ġteh": 7833,
      "ihkan": 7834,
      "Ġberkomp": 7835,
      "Ġberagama": 7836,
      "Ġterima": 7837,
      "akaman": 7838,
      "ĠEc": 7839,
      "Ġliter": 7840,
      "Ġbuka": 7841,
      "Ġkunjungan": 7842,
      "ensif": 7843,
      "Ġmanga": 7844,
      "Ġare": 7845,
      "ĠAsli": 7846,
      "ĠHarry": 7847,
      "ĠNorwegia": 7848,
      "ĠPerserikatan": 7849,
      "Ġditandai": 7850,
      "Ġrela": 7851,
      "iano": 7852,
      "unitas": 7853,
      "ĠKus": 7854,
      "ĠEnc": 7855,
      "endam": 7856,
      "Ġpanduan": 7857,
      "usnya": 7858,
      "Ġpatung": 7859,
      "Ġbanget": 7860,
      "Ġkolam": 7861,
      "ujudkan": 7862,
      "Ġeng": 7863,
      "Ġsiaran": 7864,
      "Bandar": 7865,
      "Post": 7866,
      "ataan": 7867,
      "ĠGol": 7868,
      "Ġkolom": 7869,
      "Ġkoin": 7870,
      "ambat": 7871,
      "ĠNight": 7872,
      "ĠHot": 7873,
      "ĠSebelumnya": 7874,
      "Ġdialek": 7875,
      "IL": 7876,
      "Ġtengg": 7877,
      "semb": 7878,
      "ĠPesantren": 7879,
      "Ġtas": 7880,
      "Ġlukisan": 7881,
      "UH": 7882,
      "amba": 7883,
      "ĠAleks": 7884,
      "Ġpembukaan": 7885,
      "hu": 7886,
      "Ġlampu": 7887,
      "Ġpo": 7888,
      "ĠSand": 7889,
      "anjikan": 7890,
      "á¹": 7891,
      "Peny": 7892,
      "Ġjurusan": 7893,
      "ĠDer": 7894,
      "ĠOc": 7895,
      "Ġsosok": 7896,
      "Ġkonstruksi": 7897,
      "Ġmengganti": 7898,
      "Ġstadion": 7899,
      "ets": 7900,
      "Acara": 7901,
      "qq": 7902,
      "ĠWay": 7903,
      "GB": 7904,
      "ĠKatedral": 7905,
      "Ġancaman": 7906,
      "elek": 7907,
      "ĠSport": 7908,
      "Ġkebenaran": 7909,
      "ajah": 7910,
      "ephrit": 7911,
      "Ġcur": 7912,
      "Ġdinamai": 7913,
      "Ġpengaturan": 7914,
      "Ġkoneksi": 7915,
      "Ġlubang": 7916,
      "ĠSuara": 7917,
      "ante": 7918,
      "ĠProduc": 7919,
      "Ġdijelaskan": 7920,
      "eknik": 7921,
      "ĠYud": 7922,
      "Ġpac": 7923,
      "ĠHidup": 7924,
      "ĠSap": 7925,
      "Ġtenang": 7926,
      "Ġkemajuan": 7927,
      "Ġmandi": 7928,
      "ĠAssociation": 7929,
      "Ġtari": 7930,
      "ĠUtsman": 7931,
      "Ġcek": 7932,
      "opa": 7933,
      "Ġdemo": 7934,
      "ĠBritish": 7935,
      "Ġusah": 7936,
      "wanya": 7937,
      "ĠKomandan": 7938,
      "Ġhakim": 7939,
      "Ġmemberit": 7940,
      "ilikan": 7941,
      "iu": 7942,
      "ĠSerbia": 7943,
      "ĠSelandia": 7944,
      "Ġkegagalan": 7945,
      "ukang": 7946,
      "Ġmengerti": 7947,
      "Ġselam": 7948,
      "pura": 7949,
      "Ġsemoga": 7950,
      "ĠApabila": 7951,
      "ĠNAS": 7952,
      "Ġle": 7953,
      "dasar": 7954,
      "Ġkemudahan": 7955,
      "under": 7956,
      "Ġdijalankan": 7957,
      "Ġpej": 7958,
      "Ùİ": 7959,
      "ĠSari": 7960,
      "Aku": 7961,
      "ingi": 7962,
      "Ġteater": 7963,
      "Ġparuh": 7964,
      "AC": 7965,
      "Ġkehadiran": 7966,
      "egr": 7967,
      "Ġlambat": 7968,
      "Ġperbaikan": 7969,
      "Ġkumpulan": 7970,
      "ĠDong": 7971,
      "Ġbaca": 7972,
      "Ġmenetap": 7973,
      "La": 7974,
      "enggaraan": 7975,
      "Ġpasang": 7976,
      "Ġsuaminya": 7977,
      "ĠBob": 7978,
      "rica": 7979,
      "ĠChristian": 7980,
      "ĠSn": 7981,
      "urch": 7982,
      "ding": 7983,
      "ebarkan": 7984,
      "Ġalk": 7985,
      "ĠRoman": 7986,
      "Ġmenyerah": 7987,
      "Ġsampah": 7988,
      "ĠRasul": 7989,
      "yr": 7990,
      "ordinasi": 7991,
      "ahlian": 7992,
      "ĠLang": 7993,
      "ĠSuriah": 7994,
      "ĠImp": 7995,
      "Ġserangkaian": 7996,
      "och": 7997,
      "andakan": 7998,
      "Ġtertulis": 7999,
      "Ġpeneliti": 8000,
      "ĠTum": 8001,
      "ĠAtau": 8002,
      "Ġgames": 8003,
      "IC": 8004,
      "Ang": 8005,
      "bin": 8006,
      "engkapan": 8007,
      "Ġseputar": 8008,
      "Ġkabel": 8009,
      "ĠSay": 8010,
      "ĠBib": 8011,
      "uaca": 8012,
      "ĠTelevisi": 8013,
      "Ġmenyiapkan": 8014,
      "Ġval": 8015,
      "Ġsensus": 8016,
      "Ġjari": 8017,
      "Ġmemperkuat": 8018,
      "Ġraksasa": 8019,
      "Ġmanajer": 8020,
      "Ġpenyimpanan": 8021,
      "Ġbingung": 8022,
      "Ġsejauh": 8023,
      "endro": 8024,
      "owo": 8025,
      "mes": 8026,
      "ĠCensus": 8027,
      "Ġterjangkau": 8028,
      "ĠLingkungan": 8029,
      "ĠCorporation": 8030,
      "Ġsetia": 8031,
      "cer": 8032,
      "Ġmedan": 8033,
      "ĠWir": 8034,
      "nik": 8035,
      "Ġmerusak": 8036,
      "ĠSaudi": 8037,
      "alal": 8038,
      "ĠTern": 8039,
      "ÏĦ": 8040,
      "ewar": 8041,
      "ilitas": 8042,
      "ĠPertanian": 8043,
      "Latar": 8044,
      "ĠBei": 8045,
      "OK": 8046,
      "Ġmental": 8047,
      "Ġberdamp": 8048,
      "Penyanyi": 8049,
      "yl": 8050,
      "nie": 8051,
      "ĠJambi": 8052,
      "Ġpemahaman": 8053,
      "entangan": 8054,
      "Ġlemak": 8055,
      "ĠBug": 8056,
      "Ġkreatif": 8057,
      "Ġå": 8058,
      "Ġsinar": 8059,
      "Ġpemberian": 8060,
      "ritik": 8061,
      "kuit": 8062,
      "Ġdibanding": 8063,
      "eksp": 8064,
      "ĠPala": 8065,
      "Ġpersiapan": 8066,
      "Ġdisajikan": 8067,
      "Ġatap": 8068,
      "inspirasi": 8069,
      "AF": 8070,
      "ĠDisney": 8071,
      "ĠHulu": 8072,
      "Ġberkuasa": 8073,
      "ĠCovid": 8074,
      "ĠPertahanan": 8075,
      "Ġtabel": 8076,
      "ĠMars": 8077,
      "todoks": 8078,
      "Ġwh": 8079,
      "Ġmenuntut": 8080,
      "ĠRek": 8081,
      "Ġkuil": 8082,
      "Ġseru": 8083,
      "Ġmenahan": 8084,
      "ĠTK": 8085,
      "ĠJim": 8086,
      "atiannya": 8087,
      "Ġberpindah": 8088,
      "ĠSip": 8089,
      "Ġrekor": 8090,
      "ĠYeh": 8091,
      "Ġdius": 8092,
      "Ġberharga": 8093,
      "Ek": 8094,
      "ravel": 8095,
      "'.": 8096,
      "yclop": 8097,
      "Ġbut": 8098,
      "ĠLen": 8099,
      "intai": 8100,
      "Ã¢": 8101,
      "hai": 8102,
      "Ġingat": 8103,
      "Ġformal": 8104,
      "sea": 8105,
      "Ġban": 8106,
      "ĠTata": 8107,
      "igasi": 8108,
      "ĠRama": 8109,
      "ĠJar": 8110,
      "angkal": 8111,
      "imaan": 8112,
      "Ġtakhta": 8113,
      "ĠMataram": 8114,
      "juh": 8115,
      "owi": 8116,
      "Ġkosong": 8117,
      "Ã£": 8118,
      "roses": 8119,
      "Ġsangatlah": 8120,
      "Ġpembagian": 8121,
      "ĠAmerica": 8122,
      "ĠMend": 8123,
      "Ġsetara": 8124,
      "islatif": 8125,
      "ĠDapat": 8126,
      "ĠNam": 8127,
      "Ġsurya": 8128,
      "Ġpadi": 8129,
      "irahat": 8130,
      "ĠAirlines": 8131,
      "Ġbo": 8132,
      "Ġtarik": 8133,
      "Ġmandiri": 8134,
      "celona": 8135,
      "Ġdrum": 8136,
      "Pas": 8137,
      "Apakah": 8138,
      "onfirmasi": 8139,
      "'t": 8140,
      "otan": 8141,
      "ĠRus": 8142,
      "Ġdigelar": 8143,
      "egaraan": 8144,
      "Ġdilanjutkan": 8145,
      "Ġkeperluan": 8146,
      "organ": 8147,
      "Ġbeda": 8148,
      "ĠCandi": 8149,
      "Ġarmada": 8150,
      "araja": 8151,
      "Ġkepadatan": 8152,
      "ampur": 8153,
      "Ġdipasang": 8154,
      "enomena": 8155,
      "Ġliar": 8156,
      "Ġpeman": 8157,
      "ĠPanjang": 8158,
      "urg": 8159,
      "epan": 8160,
      "cak": 8161,
      "Penulis": 8162,
      "ther": 8163,
      "ĪĴ": 8164,
      "ĠPP": 8165,
      "Ġberpengalaman": 8166,
      "Jenis": 8167,
      "inder": 8168,
      "ĠMicrosoft": 8169,
      "imu": 8170,
      "bak": 8171,
      "Ġru": 8172,
      "Ġbukit": 8173,
      "',": 8174,
      "Ġberin": 8175,
      "Ġbettor": 8176,
      "Ġline": 8177,
      "ĠKak": 8178,
      "dney": 8179,
      "jun": 8180,
      "cha": 8181,
      "ĠSamudra": 8182,
      "Ġmuslim": 8183,
      "tivis": 8184,
      "ship": 8185,
      "ĠRaf": 8186,
      "ÑĤ": 8187,
      "Ġpalsu": 8188,
      "enuhi": 8189,
      "Ep": 8190,
      "Ġramah": 8191,
      "lahirkan": 8192,
      "ĠPictures": 8193,
      "ĠBalai": 8194,
      "Ol": 8195,
      "ĠReview": 8196,
      "Ġmenjamin": 8197,
      "jack": 8198,
      "Karya": 8199,
      "ĠCOVID": 8200,
      "ĠOper": 8201,
      "cor": 8202,
      "angkatan": 8203,
      "ĠOri": 8204,
      "evelop": 8205,
      "Ġpesat": 8206,
      "ĠUnit": 8207,
      "Ġdisiarkan": 8208,
      "Ġditujukan": 8209,
      "anggih": 8210,
      "jian": 8211,
      "UK": 8212,
      "Ġpangan": 8213,
      "ĠDhar": 8214,
      "Ġoptions": 8215,
      "Ġcairan": 8216,
      "Ġmempersiapkan": 8217,
      "inansial": 8218,
      "Ġdisampaikan": 8219,
      "gy": 8220,
      "ĠMayor": 8221,
      "UT": 8222,
      "Ġminat": 8223,
      "Dis": 8224,
      "ĠTips": 8225,
      "Ġpembaca": 8226,
      "Ġtertutup": 8227,
      "ohol": 8228,
      "Ġlulusan": 8229,
      "vo": 8230,
      "Ġpaham": 8231,
      "ĠDok": 8232,
      "Ġmenggabungkan": 8233,
      "ejahter": 8234,
      "je": 8235,
      "udak": 8236,
      "Sistem": 8237,
      "manen": 8238,
      "Ġkeg": 8239,
      "olution": 8240,
      "vis": 8241,
      "ĠCast": 8242,
      "ĠOm": 8243,
      "Ġ×": 8244,
      "Ġliburan": 8245,
      "ude": 8246,
      "Ġmengundurkan": 8247,
      "ĠMilan": 8248,
      "ĠMT": 8249,
      "ĠAcara": 8250,
      "Ġilmuwan": 8251,
      "ĠCla": 8252,
      "ĠFil": 8253,
      "Ġmemec": 8254,
      "masa": 8255,
      "Ġeksekutif": 8256,
      "ephritidae": 8257,
      "Ä«": 8258,
      "utube": 8259,
      "tab": 8260,
      "Ġri": 8261,
      "ĠMeny": 8262,
      "Ġkandang": 8263,
      "Ġkekayaan": 8264,
      "Ġmenikahi": 8265,
      "ĠBung": 8266,
      "ĠKalian": 8267,
      "ĠAla": 8268,
      "Ġmac": 8269,
      "ĠMata": 8270,
      "use": 8271,
      "%)": 8272,
      "onegoro": 8273,
      "ĠTal": 8274,
      "ping": 8275,
      "ĠAM": 8276,
      "Ġmenjadikannya": 8277,
      "Ġmengajak": 8278,
      "ms": 8279,
      "Ġdeb": 8280,
      "ekusi": 8281,
      "adaptasi": 8282,
      "ĠParlemen": 8283,
      "Ġtaj": 8284,
      "ĠManchester": 8285,
      "Raja": 8286,
      "Ġnom": 8287,
      "iksa": 8288,
      "Ġmaksud": 8289,
      "Ġkg": 8290,
      "uro": 8291,
      "uncuran": 8292,
      "ophagus": 8293,
      "ĠEnglish": 8294,
      "inja": 8295,
      "Ġbelanja": 8296,
      "lock": 8297,
      "GA": 8298,
      "ĠVo": 8299,
      "ĠState": 8300,
      "nick": 8301,
      "artawan": 8302,
      "score": 8303,
      "Ġalias": 8304,
      "ĠSemoga": 8305,
      "Ġpokok": 8306,
      "Ġperayaan": 8307,
      "Ġhorm": 8308,
      "ĠKaz": 8309,
      "Ġgugur": 8310,
      "Ġfir": 8311,
      "olehkan": 8312,
      "ĠGood": 8313,
      "ĠPremi": 8314,
      "barang": 8315,
      "ĠĠĠĠĠĠĠĠĠĠĠĠ": 8316,
      "Ġkejuaraan": 8317,
      "Ġkematiannya": 8318,
      "rot": 8319,
      "Ġden": 8320,
      "Bagian": 8321,
      "Ġberani": 8322,
      "ĠGel": 8323,
      "unner": 8324,
      "Ġputranya": 8325,
      "Ġbeban": 8326,
      "overn": 8327,
      "Ġgabungan": 8328,
      "ĠCel": 8329,
      "ĠMoham": 8330,
      "panjang": 8331,
      "cess": 8332,
      "CD": 8333,
      "Ġmenilai": 8334,
      "ĠLomb": 8335,
      "ilaian": 8336,
      "Br": 8337,
      "ĠChic": 8338,
      "Ġkarir": 8339,
      "Ġbasis": 8340,
      "enario": 8341,
      "jung": 8342,
      "Ġbir": 8343,
      "Ġsam": 8344,
      "ĠJoker": 8345,
      "bus": 8346,
      "oreng": 8347,
      "Ġtropis": 8348,
      "ĠHand": 8349,
      "antis": 8350,
      "Res": 8351,
      "ĠKop": 8352,
      "Ġpariwisata": 8353,
      "ĠAst": 8354,
      "ĠSut": 8355,
      "ekaran": 8356,
      "ĠTechn": 8357,
      "wara": 8358,
      "ĠAlexander": 8359,
      "ĠOf": 8360,
      "Ġbiji": 8361,
      "Ġberlebihan": 8362,
      "Ġgaram": 8363,
      "ĠKang": 8364,
      "Ġpemandangan": 8365,
      "Ġdisingkat": 8366,
      "Ġsarjana": 8367,
      "Ġrumput": 8368,
      "ĠBonus": 8369,
      "Ġkonvensi": 8370,
      "unggung": 8371,
      "Le": 8372,
      "entase": 8373,
      "Ġprestasi": 8374,
      "ĠLapangan": 8375,
      "jalan": 8376,
      "Ġberkat": 8377,
      "ST": 8378,
      "yana": 8379,
      "aitkan": 8380,
      "Ġsak": 8381,
      "Ġpasca": 8382,
      "Ġhamil": 8383,
      "Ġvirtual": 8384,
      "estik": 8385,
      "epara": 8386,
      "Ġangkasa": 8387,
      "ropolitan": 8388,
      "Ġkedudukan": 8389,
      "angkut": 8390,
      "ĠAbdullah": 8391,
      "Ġberkisar": 8392,
      "ĠPanas": 8393,
      "Ãº": 8394,
      "engarkan": 8395,
      "Kemudian": 8396,
      "Ġkaryanya": 8397,
      "ĠMelalui": 8398,
      "adaran": 8399,
      "Ġburuh": 8400,
      "Ġberturut": 8401,
      "Ġdira": 8402,
      "ĠMP": 8403,
      "Ser": 8404,
      "Ġnenek": 8405,
      "Ġaw": 8406,
      "Ġmarah": 8407,
      "Ġmemicu": 8408,
      "Ġsaran": 8409,
      "ĠEric": 8410,
      "],": 8411,
      "orth": 8412,
      "try": 8413,
      "Ġpenip": 8414,
      "thophagus": 8415,
      "GP": 8416,
      "kantor": 8417,
      "ĠDam": 8418,
      "kuad": 8419,
      "Ġoperasional": 8420,
      "Ġsite": 8421,
      "ĠBerita": 8422,
      "Ġotot": 8423,
      "ĠJumat": 8424,
      "Ġmusisi": 8425,
      "ĠPok": 8426,
      "Ġmetal": 8427,
      "lawanan": 8428,
      "Ġmenyelenggarakan": 8429,
      "Ġmasakan": 8430,
      "ĠSenin": 8431,
      "sia": 8432,
      "En": 8433,
      "Ġpikir": 8434,
      "ekerjaan": 8435,
      "lora": 8436,
      "aterai": 8437,
      "ĠSimon": 8438,
      "sih": 8439,
      "Ġkotor": 8440,
      "âŃĲ": 8441,
      "Ġbaja": 8442,
      "ane": 8443,
      "ĠTeam": 8444,
      "ikasikan": 8445,
      "irah": 8446,
      "Ġdimak": 8447,
      "ĠTwitter": 8448,
      "atri": 8449,
      "ĠDemospongiae": 8450,
      "Wilayah": 8451,
      "ava": 8452,
      "Ġgeografis": 8453,
      "Ġqu": 8454,
      "Ġmelint": 8455,
      "ĠProject": 8456,
      "yangk": 8457,
      "ĠCup": 8458,
      "Ġterpaksa": 8459,
      "umpai": 8460,
      "Perang": 8461,
      "Ab": 8462,
      "Ġlisensi": 8463,
      "inggalkan": 8464,
      "Ġbinatang": 8465,
      "Ġspesifik": 8466,
      "ĠPerh": 8467,
      "CTV": 8468,
      "ĠDownload": 8469,
      "Ġkeselamatan": 8470,
      "Ġdilarang": 8471,
      "ĠJat": 8472,
      "karya": 8473,
      "onc": 8474,
      "atukan": 8475,
      "Ġlogo": 8476,
      "Ġmaksimum": 8477,
      "Ġbaris": 8478,
      "abah": 8479,
      "ribadi": 8480,
      "ĠGreg": 8481,
      "ĠPek": 8482,
      "Ġkatedral": 8483,
      "rary": 8484,
      "uruk": 8485,
      "ĠRiv": 8486,
      "Ġhom": 8487,
      "Ġaksara": 8488,
      "Ġsejarawan": 8489,
      "Ġrekomendasi": 8490,
      "Ġberjuang": 8491,
      "rum": 8492,
      "ulidae": 8493,
      "endela": 8494,
      "eller": 8495,
      "ancur": 8496,
      "ĠPolitik": 8497,
      "Ġberkompetisi": 8498,
      "diam": 8499,
      "Ġpesta": 8500,
      "Ġpemilu": 8501,
      "ambing": 8502,
      "Ġjawaban": 8503,
      "ument": 8504,
      "iawan": 8505,
      "agan": 8506,
      "ĠKapal": 8507,
      "inn": 8508,
      "Ġmenghubungi": 8509,
      "afe": 8510,
      "Ġinfo": 8511,
      "unting": 8512,
      "Tel": 8513,
      "Ġì": 8514,
      "ishi": 8515,
      "Ġpembeli": 8516,
      "yai": 8517,
      "Ġdiperhatikan": 8518,
      "Ġdagang": 8519,
      "zabeth": 8520,
      "Ġkalimat": 8521,
      "okol": 8522,
      "Ġspir": 8523,
      "ĠXia": 8524,
      "Ġhel": 8525,
      "Setiap": 8526,
      "Ġtopik": 8527,
      "Gen": 8528,
      "Ti": 8529,
      "Ġpersa": 8530,
      "Ġkolonial": 8531,
      "Tak": 8532,
      "Ġdilahirkan": 8533,
      "Ġmelebih": 8534,
      "ĠTik": 8535,
      "ĠSampai": 8536,
      "Ġpus": 8537,
      "ubuk": 8538,
      "ÙĬ": 8539,
      "ittle": 8540,
      "Ġmitra": 8541,
      "ĠLat": 8542,
      "Ùħ": 8543,
      "ĠLem": 8544,
      "ĠPla": 8545,
      "tin": 8546,
      "Ġbalap": 8547,
      "elly": 8548,
      "ĠSev": 8549,
      "ĠDI": 8550,
      "ĠKetiga": 8551,
      "UL": 8552,
      "Ġmendekati": 8553,
      "Ġpertar": 8554,
      "Ġdirektur": 8555,
      "Ġberencana": 8556,
      "Ġperhitungan": 8557,
      "read": 8558,
      "Ġkedatangan": 8559,
      "ĠTari": 8560,
      "Ġseluler": 8561,
      "pi": 8562,
      "ariah": 8563,
      "ĠStrategi": 8564,
      "ilasi": 8565,
      "Ġberulang": 8566,
      "bet": 8567,
      "bium": 8568,
      "reditasi": 8569,
      "lusif": 8570,
      "Ġriset": 8571,
      "Ġmuka": 8572,
      "Ġsay": 8573,
      "Ġlanjutan": 8574,
      "ĠBata": 8575,
      "ĠGratis": 8576,
      "ejahteraan": 8577,
      "ĠDal": 8578,
      "Ġkecantikan": 8579,
      "mun": 8580,
      "onda": 8581,
      "Str": 8582,
      "ĠKot": 8583,
      "Ġsesama": 8584,
      "htt": 8585,
      "SS": 8586,
      "Ġmemeriksa": 8587,
      "Ġbulat": 8588,
      "ubungi": 8589,
      "Buku": 8590,
      "ĠFinal": 8591,
      "esarkan": 8592,
      "Ġterpenting": 8593,
      "rov": 8594,
      "barkan": 8595,
      "stal": 8596,
      "Ġsepatu": 8597,
      "Ġpotongan": 8598,
      "Ġpopular": 8599,
      "Ġkenapa": 8600,
      "Ġuc": 8601,
      "oskop": 8602,
      "Ġok": 8603,
      "Sekarang": 8604,
      "ĠHor": 8605,
      "ĠWa": 8606,
      "Ġmenggunakannya": 8607,
      "ense": 8608,
      "ĠâĨ": 8609,
      "ustomer": 8610,
      "aster": 8611,
      "ĠCul": 8612,
      "ĠFound": 8613,
      "ĠIndi": 8614,
      "imer": 8615,
      "ift": 8616,
      "ĠFree": 8617,
      "ĠBarcelona": 8618,
      "Ġmenyusun": 8619,
      "Ã¼r": 8620,
      "ĠMarket": 8621,
      "imi": 8622,
      "Ġfase": 8623,
      "elihara": 8624,
      "ĠBac": 8625,
      "wajiban": 8626,
      "angku": 8627,
      "ĠKro": 8628,
      "Ġpembawa": 8629,
      "ror": 8630,
      "elat": 8631,
      "atholic": 8632,
      "Sc": 8633,
      "Ġmurni": 8634,
      "Ġkakak": 8635,
      "endang": 8636,
      "ido": 8637,
      "ederasi": 8638,
      "ĠToba": 8639,
      "Ġmewah": 8640,
      "âĢ¢": 8641,
      "Ġrapat": 8642,
      "ĠFa": 8643,
      "RL": 8644,
      "ulir": 8645,
      "Ġblok": 8646,
      "ĠAdi": 8647,
      "BI": 8648,
      "Ġtemukan": 8649,
      "Ġpencipta": 8650,
      "ĠGeorgia": 8651,
      "ends": 8652,
      "Disk": 8653,
      "Ġrevolusi": 8654,
      "Ġberkunjung": 8655,
      "Ġkonteks": 8656,
      "ĠDeposit": 8657,
      "Ġrah": 8658,
      "ĠYos": 8659,
      "Ġmemaksa": 8660,
      "mem": 8661,
      "Ġpemeriksaan": 8662,
      "Ġbanjir": 8663,
      "Ġprediksi": 8664,
      "ĠBatang": 8665,
      "ustin": 8666,
      "etapan": 8667,
      "Ġover": 8668,
      "bol": 8669,
      "ĠLink": 8670,
      "lihatkan": 8671,
      "ootball": 8672,
      "Ġmenara": 8673,
      "jin": 8674,
      "Ġmenyarankan": 8675,
      "Ġpredator": 8676,
      "elaki": 8677,
      "erankan": 8678,
      "ilo": 8679,
      "Ġdiser": 8680,
      "etron": 8681,
      "elle": 8682,
      "htm": 8683,
      "inaan": 8684,
      "Ġmenyak": 8685,
      "Ġelektron": 8686,
      "Ġkrisis": 8687,
      "Ġadap": 8688,
      "ĠSoekarno": 8689,
      "aker": 8690,
      "Ġpenyebaran": 8691,
      "onto": 8692,
      "untung": 8693,
      "Ġ>": 8694,
      "Ġterbit": 8695,
      "ĠPenelitian": 8696,
      "ĠSara": 8697,
      "mond": 8698,
      "Ġaneh": 8699,
      "Ġgrafik": 8700,
      "Com": 8701,
      "anger": 8702,
      "Ġmengerjakan": 8703,
      "left": 8704,
      "ĠWes": 8705,
      "Ġdengannya": 8706,
      "ĠCas": 8707,
      "ĠWales": 8708,
      "ĠMati": 8709,
      "uangkan": 8710,
      "ĠKomunis": 8711,
      "owongan": 8712,
      "Ġmelepaskan": 8713,
      "Ġdiyakini": 8714,
      "Ġmelintasi": 8715,
      "ĠEver": 8716,
      "Ġikatan": 8717,
      "mbangkan": 8718,
      "xi": 8719,
      "Ġinstrumen": 8720,
      "ĠCarol": 8721,
      "Ġmula": 8722,
      "ĠGala": 8723,
      "Met": 8724,
      "Ġbal": 8725,
      "Sta": 8726,
      "Ġsegar": 8727,
      "ĠAgrilus": 8728,
      "ontalo": 8729,
      "Ġdiresmikan": 8730,
      "yphi": 8731,
      "Ġbrow": 8732,
      "ĠIstilah": 8733,
      "ĠProfil": 8734,
      "par": 8735,
      "Nov": 8736,
      "cy": 8737,
      "Ġkacang": 8738,
      "ĠOpen": 8739,
      "Ġalign": 8740,
      "Ġbicara": 8741,
      "ĠPrinc": 8742,
      "Ġakar": 8743,
      "olan": 8744,
      "antri": 8745,
      "plin": 8746,
      "ryp": 8747,
      "Ġcerdas": 8748,
      "Ã£o": 8749,
      "ĠAL": 8750,
      "field": 8751,
      "Ġkenaikan": 8752,
      "ign": 8753,
      "ĠKuala": 8754,
      "Ġdomain": 8755,
      "Ġmag": 8756,
      "esp": 8757,
      "ego": 8758,
      "Ġlancar": 8759,
      "Negara": 8760,
      "ĠLima": 8761,
      "ĠTerminal": 8762,
      "Ġmenegaskan": 8763,
      "bour": 8764,
      "Ġpelajar": 8765,
      "ĠPolisi": 8766,
      "GM": 8767,
      "Ġvisual": 8768,
      "Ġmenyimp": 8769,
      "ibet": 8770,
      "ĠPadahal": 8771,
      "Ġgrafis": 8772,
      "ihatan": 8773,
      "AI": 8774,
      "mel": 8775,
      "ĠUU": 8776,
      "Ġjaminan": 8777,
      "Ġambil": 8778,
      "Ġkue": 8779,
      "Ġwali": 8780,
      "Ġpur": 8781,
      "Ð¾Ð": 8782,
      "Ġmikro": 8783,
      "edera": 8784,
      "Ġdistribusi": 8785,
      "onstr": 8786,
      "Ġcuaca": 8787,
      "etis": 8788,
      "ĠOrtodoks": 8789,
      "ĠGolden": 8790,
      "ĠStan": 8791,
      "KM": 8792,
      "Ġperekonomian": 8793,
      "Ġblack": 8794,
      "ecio": 8795,
      "Kepala": 8796,
      "ycetophilidae": 8797,
      "Ġdibeli": 8798,
      "ĠResearch": 8799,
      "akia": 8800,
      "ekh": 8801,
      "Ġgampang": 8802,
      "ĠSL": 8803,
      "ĠKartu": 8804,
      "Ġchip": 8805,
      "Ġhangat": 8806,
      "ambilan": 8807,
      "mais": 8808,
      "Ġkeberuntungan": 8809,
      "Ġotoritas": 8810,
      "ulia": 8811,
      "ĠJabatan": 8812,
      "dirian": 8813,
      "Ġtunai": 8814,
      "ĠTag": 8815,
      "ald": 8816,
      "Ġwilayahnya": 8817,
      "Ġsbobet": 8818,
      "AB": 8819,
      "ukun": 8820,
      "Ġketerangan": 8821,
      "Ġlirik": 8822,
      "yphiidae": 8823,
      "esian": 8824,
      "Put": 8825,
      "integrasi": 8826,
      "ĠScience": 8827,
      "ektorat": 8828,
      "ĠSabtu": 8829,
      "Ġbenua": 8830,
      "Ġmenghitung": 8831,
      "zed": 8832,
      "Ġmenonjol": 8833,
      "Ġmemanggil": 8834,
      "Ġperencanaan": 8835,
      "ĠGh": 8836,
      "Ġkemar": 8837,
      "Ġtime": 8838,
      "Ġkontroversi": 8839,
      "ĠMam": 8840,
      "Ġteratas": 8841,
      "km": 8842,
      "light": 8843,
      "Ġpandang": 8844,
      "rahim": 8845,
      "itia": 8846,
      "Ġteratur": 8847,
      "Ġdipanggil": 8848,
      "ĠShah": 8849,
      "utorial": 8850,
      "Ġlurus": 8851,
      "ĠPersatuan": 8852,
      "ĠFort": 8853,
      "Ġrumit": 8854,
      "Ġpenemuan": 8855,
      "ĠYak": 8856,
      "Ġsekelompok": 8857,
      "ultasi": 8858,
      "Ġideal": 8859,
      "alaya": 8860,
      "Ġperbuatan": 8861,
      "ĠAN": 8862,
      "Ġkerjasama": 8863,
      "ĠBitcoin": 8864,
      "ĠPegunungan": 8865,
      "ĠDor": 8866,
      "Ġdikalahkan": 8867,
      "Ġkonsentrasi": 8868,
      "Ġmelebihi": 8869,
      "Ġritual": 8870,
      "Ġmembedakan": 8871,
      "Ġdinasti": 8872,
      "Penduduk": 8873,
      "osari": 8874,
      "Ġgaji": 8875,
      "ributor": 8876,
      "Ġcanggih": 8877,
      "ĠElizabeth": 8878,
      "Ġmemperluas": 8879,
      "uch": 8880,
      "ĠCommun": 8881,
      "Ġmeri": 8882,
      "ĠEar": 8883,
      "umpur": 8884,
      "Terdapat": 8885,
      "Ġfinansial": 8886,
      "mann": 8887,
      "can": 8888,
      "Ġki": 8889,
      "Ġmendalam": 8890,
      "Ġfisika": 8891,
      "Ġkeyakinan": 8892,
      "á»": 8893,
      "utang": 8894,
      "ĠVirgin": 8895,
      "ĠKomando": 8896,
      "tere": 8897,
      "Ġterminal": 8898,
      "iteria": 8899,
      "Ġpetunjuk": 8900,
      "Ġklaim": 8901,
      "Ġdipandang": 8902,
      "ĠMudah": 8903,
      "edang": 8904,
      "ĠLain": 8905,
      "ĠSas": 8906,
      "Ġperoleh": 8907,
      "Ġest": 8908,
      "Ġdisusun": 8909,
      "ĠPerpustakaan": 8910,
      "Ġfilsafat": 8911,
      "untansi": 8912,
      "empor": 8913,
      "rie": 8914,
      "ecial": 8915,
      "ĠFirst": 8916,
      "ĠTerbesar": 8917,
      "ĠUM": 8918,
      "yama": 8919,
      "Jumlah": 8920,
      "Ġanal": 8921,
      "Ġpengakuan": 8922,
      "ĠSydney": 8923,
      "ĠMatahari": 8924,
      "Ġorganik": 8925,
      "inopsis": 8926,
      "ĠBooks": 8927,
      "ĠNazi": 8928,
      "Ġlong": 8929,
      "ĠHend": 8930,
      "Ġmenghadirkan": 8931,
      "Ġhektar": 8932,
      "Ġgul": 8933,
      "eaming": 8934,
      "ĠYon": 8935,
      "Ġefisien": 8936,
      "Ġselaku": 8937,
      "Ġkritis": 8938,
      "ĠKapten": 8939,
      "Ked": 8940,
      "ĠPener": 8941,
      "Ġtest": 8942,
      "pin": 8943,
      "Ġmiskin": 8944,
      "forma": 8945,
      "ĠPR": 8946,
      "Qur": 8947,
      "ĠLev": 8948,
      "elajah": 8949,
      "Ġmelambangkan": 8950,
      "ĠHit": 8951,
      "ĠHome": 8952,
      "ĠTay": 8953,
      "Ġbakat": 8954,
      "ĠKomputer": 8955,
      "Ġadegan": 8956,
      "ĠPanglima": 8957,
      "Ġtetangga": 8958,
      "Ġmulti": 8959,
      "ekutu": 8960,
      "cam": 8961,
      "enalan": 8962,
      "ikanan": 8963,
      "hasil": 8964,
      "Ġpahlawan": 8965,
      "ĠBegitu": 8966,
      "abu": 8967,
      "ĠPublic": 8968,
      "Ġpermanen": 8969,
      "Singel": 8970,
      "Ġkarakteristik": 8971,
      "ĠJun": 8972,
      "Contoh": 8973,
      "ĠSent": 8974,
      "ostolik": 8975,
      "elai": 8976,
      "Ġpersetujuan": 8977,
      "ĠPeri": 8978,
      "Ġeksk": 8979,
      "Ġujar": 8980,
      "Ġmengendalikan": 8981,
      "ING": 8982,
      "lek": 8983,
      "Ġpentingnya": 8984,
      "ĠKum": 8985,
      "Ġbaiknya": 8986,
      "Ġfos": 8987,
      "Ġisu": 8988,
      "Ġmengec": 8989,
      "pe": 8990,
      "ĠHarv": 8991,
      "Jangan": 8992,
      "ĠAD": 8993,
      "Ġmakanannya": 8994,
      "ĠApple": 8995,
      "Ġwawancara": 8996,
      "Ġdinilai": 8997,
      "Ġdoa": 8998,
      "Ġdirencanakan": 8999,
      "Ġgu": 9000,
      "ancing": 9001,
      "ĠPlatnick": 9002,
      "odes": 9003,
      "Ġhand": 9004,
      "Ġmengobati": 9005,
      "Ġberhak": 9006,
      "Kont": 9007,
      "ĠIndah": 9008,
      "entunya": 9009,
      "entuh": 9010,
      "Ġberkel": 9011,
      "Pemerintahan": 9012,
      "caan": 9013,
      "Ġmenyesuaikan": 9014,
      "uaskan": 9015,
      "Ġkeberhasilan": 9016,
      "Ġpenyelenggaraan": 9017,
      "ĠHad": 9018,
      "Ġseekor": 9019,
      "ape": 9020,
      "okerto": 9021,
      "ĠApi": 9022,
      "Ġdicapai": 9023,
      "Ġtenggara": 9024,
      "utrisi": 9025,
      "ĠPersi": 9026,
      "ĠâĨĴ": 9027,
      "juga": 9028,
      "aro": 9029,
      "Ġlambang": 9030,
      "ĠStory": 9031,
      "ĠBP": 9032,
      "evelopment": 9033,
      "Eks": 9034,
      "ance": 9035,
      "Ġdibantu": 9036,
      "yd": 9037,
      "ĠEmas": 9038,
      "Ġharta": 9039,
      "ĠEmp": 9040,
      "Ġharganya": 9041,
      "ĠWhite": 9042,
      "Ġrupa": 9043,
      "Ġmelarang": 9044,
      "Ġdosa": 9045,
      "atangkan": 9046,
      "Ġmengidentifikasi": 9047,
      "Ġkepemilikan": 9048,
      "ĠGra": 9049,
      "Ġsawah": 9050,
      "Awal": 9051,
      "ĠLum": 9052,
      "Ġdisesuaikan": 9053,
      "ĠVik": 9054,
      "Ġpenerima": 9055,
      "Ġsusah": 9056,
      "ĠIkan": 9057,
      "Ġbertahun": 9058,
      "ĠEncyclop": 9059,
      "Ġpuluhan": 9060,
      "Ġpeta": 9061,
      "ahap": 9062,
      "olok": 9063,
      "ujung": 9064,
      "ĠLeon": 9065,
      "Ġkeahlian": 9066,
      "ĠLak": 9067,
      "Ġberfokus": 9068,
      "ĠBeijing": 9069,
      "sihan": 9070,
      "FF": 9071,
      "ĠPengadilan": 9072,
      "ĠKonstitusi": 9073,
      "Ġprosedur": 9074,
      "ĠRegi": 9075,
      "endrobium": 9076,
      "ĠYam": 9077,
      "ĠSastra": 9078,
      "Ġkeenam": 9079,
      "Ġmenghapus": 9080,
      "Sinopsis": 9081,
      "Ġuntung": 9082,
      "ĠBroad": 9083,
      "esawat": 9084,
      "Ġpenulisan": 9085,
      "erba": 9086,
      "well": 9087,
      "Ġbaku": 9088,
      "asus": 9089,
      "ĠBerbagai": 9090,
      "ĠMenjadi": 9091,
      "Ġwah": 9092,
      "ĠNetwork": 9093,
      "ĠKawasan": 9094,
      "ĠService": 9095,
      "ds": 9096,
      "Ġmengejar": 9097,
      "Ġmendarat": 9098,
      "ahir": 9099,
      "ĠPanc": 9100,
      "Ġjutaan": 9101,
      "eople": 9102,
      "Ġprasasti": 9103,
      "ebutan": 9104,
      "Ġdiplomat": 9105,
      "ĠPerm": 9106,
      "Ġhabit": 9107,
      "erahan": 9108,
      "upai": 9109,
      "uburan": 9110,
      "ĠCentral": 9111,
      "ages": 9112,
      "Ġsila": 9113,
      "Ġdaring": 9114,
      "Ġkebun": 9115,
      "Ġgua": 9116,
      "dalkan": 9117,
      "Ġmimpi": 9118,
      "Ġmencer": 9119,
      "ĠGeneral": 9120,
      "oditas": 9121,
      "ĠDream": 9122,
      "Ġsewa": 9123,
      "Ġmemandang": 9124,
      "ĠLtd": 9125,
      "ÙĨ": 9126,
      "ule": 9127,
      "Ġcaranya": 9128,
      "ĠChicago": 9129,
      "ĠEpisode": 9130,
      "Ġcipta": 9131,
      "Ġresiko": 9132,
      "Ġdef": 9133,
      "ĠTam": 9134,
      "ĠRod": 9135,
      "Îµ": 9136,
      "diaan": 9137,
      "zhou": 9138,
      "ĠJepara": 9139,
      "ĠWang": 9140,
      "Ġpemegang": 9141,
      "kem": 9142,
      "paran": 9143,
      "Ġmengembalikan": 9144,
      "ĠMasehi": 9145,
      "Pener": 9146,
      "ĠMap": 9147,
      "ĠAgar": 9148,
      "tem": 9149,
      "Ġpendirian": 9150,
      "ĠToyota": 9151,
      "ulator": 9152,
      "ĠRid": 9153,
      "Ġbr": 9154,
      "embahan": 9155,
      "erifikasi": 9156,
      "ĠMenc": 9157,
      "Ġinfrastruktur": 9158,
      "Ġtrend": 9159,
      "ix": 9160,
      "bukan": 9161,
      "Ġroti": 9162,
      "Ġpeduli": 9163,
      "Ġplayer": 9164,
      "atinya": 9165,
      "umpah": 9166,
      "ĠIQ": 9167,
      "ashion": 9168,
      "Ġkehormatan": 9169,
      "Ġinsting": 9170,
      "ĠAugust": 9171,
      "ĠMuk": 9172,
      "ĠPram": 9173,
      "ĠFrancisco": 9174,
      "ĠSik": 9175,
      "Ġdomestik": 9176,
      "ternal": 9177,
      "esaan": 9178,
      "Ġdisertai": 9179,
      "ĠDic": 9180,
      "ĠCorn": 9181,
[...]
